[PAD]
[UNK]
[START]
[END]
!
"
#
$
%
&
'
(
)
*
+
,
-
.
/
0
1
2
3
4
5
6
7
8
9
:
;
<
=
>
?
@
[
\
]
^
_
`
a
b
c
d
e
f
g
h
i
j
k
l
m
n
o
p
q
r
s
t
u
v
w
x
y
z
{
|
}
~
¡
£
¥
§
¬
®
°
±
·
»
¿
×
æ
÷
ø
ə
ɪ
ɹ
ʿ
ˈ
α
β
γ
δ
ε
η
θ
ι
κ
λ
μ
ν
ο
π
σ
υ
च
छ
य
ᄀ
ᄇ
ᄌ
ᅡ
ᅩ
ᅵ
ᆼ
‐
–
—
―
‘
’
“
”
•
⁄
€
←
→
⇒
⇓
∃
−
√
∞
∠
∧
∨
∪
≥
⋅
─
│
┌
└
═
║
╔
╗
╚
╝
╠
╣
╦
╩
╬
█
▸
►
●
★
☠
♭
✔
✨
❤
⭐
、
。
あ
い
お
か
き
く
こ
し
す
た
ち
っ
つ
て
な
に
の
は
ま
も
り
を
ん
一
下
不
个
为
人
今
他
以
们
但
何
作
你
優
元
光
准
前
去
友
可
名
吧
在
坚
夕
外
多
夜
夢
女
好
存
它
师
師
強
形
彼
思
性
懈
我
持
探
教
文
斗
无
日
是
曾
月
朋
正
気
水
永
海
滩
生
由
白
的
确
秀
私
空
经
老
自
色
花
苦
英
行
见
让
议
远
采
量
長
難
雨
面
食
￼
🌃
🌏
🌟
🍩
🍴
🎉
🏻
🏼
🐈
🐥
🐮
👇
👌
👠
💃
💕
💚
💯
🕺
😀
😆
😈
😉
😎
😔
🚢
🤔
🤗
🤤
🤩
🥘
🧣
🧤
🧥
the
and
to
of
in
is
for
that
it
with
an
as
can
are
be
on
or
this
by
you
was
from
their
more
given
have
sentence
following
data
what
##s
he
your
create
has
such
they
also
used
make
one
two
about
generate
new
time
should
how
list
which
use
its
other
up
into
customer
all
at
help
she
using
people
will
world
when
name
not
we
his
would
had
could
learning
provide
describe
energy
if
find
three
way
ai
between
our
them
write
her
like
who
my
take
but
words
most
while
so
do
out
include
life
technology
each
day
identify
10
there
system
important
reduce
explain
than
example
different
number
text
through
been
any
language
product
additionally
over
word
some
us
story
person
set
no
information
based
many
water
work
five
process
change
well
making
order
design
both
experience
machine
potential
health
first
then
tasks
need
service
input
##ing
these
better
online
food
me
article
user
social
being
type
access
computer
natural
best
may
were
around
great
environment
model
##ed
store
give
improve
company
where
customers
main
intelligence
come
good
artificial
climate
website
software
get
business
large
able
made
john
algorithm
human
long
global
home
content
increase
items
why
output
often
benefits
night
finally
air
features
services
power
small
city
numbers
##d
add
impact
quickly
statement
plan
problem
high
form
before
states
job
family
code
together
media
place
light
resources
creating
suggest
sure
return
activities
cost
ways
positive
rewrite
sun
future
users
down
go
skills
years
ensure
must
classify
same
development
even
sky
systems
research
providing
team
once
love
after
##ly
until
businesses
book
learn
public
found
movie
products
develop
students
understanding
marketing
apple
sources
possible
stay
united
increased
own
physical
game
phrase
education
efficient
without
never
communication
become
lead
healthy
helps
always
am
does
analyze
questions
due
car
keep
creative
only
understand
area
effective
web
taking
range
right
value
start
deep
friends
program
security
elements
common
much
digital
quality
economic
just
something
body
needs
project
variety
animals
related
countries
allows
key
including
search
network
end
step
year
market
support
ability
back
poem
healthcare
because
string
strong
old
topic
performance
sentences
##e
task
steps
ingredients
summarize
compare
goals
during
internet
appropriate
typically
renewable
calculate
short
##y
algorithms
meaning
current
character
array
effects
applications
self
levels
away
four
popular
involves
processing
decisions
amount
certain
decision
essential
few
having
earth
improved
uses
cup
allowing
money
complex
living
powerful
knowledge
part
structure
every
less
action
him
construct
reach
focus
look
off
provides
determine
cat
correct
minutes
true
result
those
difficult
changes
question
success
print
offer
term
types
unique
financial
major
characters
let
looking
temperature
title
successful
past
think
journey
models
points
function
email
explore
control
pollution
someone
species
complete
top
object
carbon
patterns
medical
open
app
setting
importance
blue
upon
ideas
difference
necessary
today
risk
analysis
concept
news
nature
science
student
atmosphere
negative
feeling
overall
industry
strategies
population
edit
heart
rate
care
humans
next
working
group
hand
writing
##er
average
children
solutions
table
heat
government
reducing
man
sum
build
going
country
animal
##a
line
last
lives
mental
price
growth
space
cause
color
15
12
events
higher
stress
don
known
traditional
sense
very
history
specific
still
verb
opportunities
paper
trees
cloud
now
hard
feedback
management
total
description
programming
things
leading
transportation
emissions
idea
low
easy
point
dog
know
event
page
solution
virtual
full
individual
results
costs
situation
state
various
wind
select
too
ever
free
purpose
solar
clear
convert
face
local
##r
methods
problems
school
source
friendly
weather
answer
here
park
another
companies
green
everyone
modern
protect
greater
read
oil
secure
seen
beauty
did
young
level
tree
environmental
instructions
issue
advantages
feel
activity
areas
age
examples
materials
books
11
techniques
house
ocean
efficiency
sea
see
tools
colors
increasing
red
times
enjoy
filled
allow
equation
further
##t
issues
side
across
against
friend
eating
needed
size
exercise
paragraph
20
multiple
beautiful
computing
others
individuals
speech
track
waste
sound
warming
field
means
def
war
application
art
stars
strategy
values
re
show
detect
behavior
processes
simple
gpt
mobile
white
length
recognition
usually
neural
post
shopping
single
bring
save
plants
summer
days
test
personal
either
joy
solving
class
item
solve
check
economy
provided
share
technologies
tell
practice
went
caused
differences
forest
role
accuracy
perfect
includes
spread
easier
want
available
compose
feature
restaurant
developing
wide
real
voice
american
non
according
##n
vegetables
sentiment
regular
within
associated
planet
##es
live
networks
date
furthermore
plant
relevant
trends
challenges
sleep
image
moon
play
since
style
relationships
safety
done
phone
present
second
stock
works
india
designed
music
speed
offers
##o
device
below
bright
hours
experiences
society
objects
several
purchase
travel
dark
butter
employees
room
easily
song
sustainable
party
recipe
running
cars
100
likely
produce
painting
pandemic
playing
address
break
addition
com
components
move
terms
yourself
devices
19
engaging
predict
choose
training
adventure
computers
eggs
sales
try
cheese
magical
html
production
factors
response
cats
diet
plastic
teaspoon
clean
faster
however
salt
study
largest
lower
makes
review
takes
essay
python
options
categorize
subject
black
message
taken
contrast
goal
30
gain
significant
recent
require
town
felt
000
letter
rights
audience
created
budget
along
risks
building
orange
warm
effect
novel
hope
progress
temperatures
arr
culture
apples
element
patient
requires
accurate
consider
least
please
special
https
tips
buy
sugar
blog
false
platform
target
50
english
soon
images
turn
walking
contains
database
account
lack
manage
helping
decided
ask
rise
personalized
topics
beach
triangle
matter
maintain
cities
might
query
million
assistant
electric
political
courage
morning
put
changing
kind
little
birds
happy
river
choice
eventually
##l
big
interesting
land
connected
despite
measure
##al
noun
sort
promote
storage
relationship
written
fruits
layer
meeting
strength
whether
context
ll
suitable
25
follows
garlic
##2
games
professional
sports
argument
baking
income
measures
expression
determined
testing
enough
equal
hello
law
involve
exploring
increasingly
left
case
ice
peace
location
far
insights
tool
kingdom
opportunity
programs
##m
piece
becoming
contact
robot
scientific
conditions
video
else
rising
run
driven
approach
head
larger
fun
highest
getting
policy
basic
logo
automation
per
banana
int
pepper
pieces
automated
cook
forward
player
safe
active
china
community
connect
french
girl
mysterious
##1
bowl
coffee
meaningful
york
diseases
driving
force
primary
throughout
vehicles
daily
view
figure
famous
organization
summary
course
forms
cold
interface
meet
prices
productivity
theme
position
regularly
sides
instead
practices
shape
metaphor
mountain
##i
ground
consequences
contain
satisfaction
automate
distance
towards
evaluate
excellent
existing
google
opinion
interact
visit
loyalty
responsible
said
hot
pet
additional
fish
mind
robots
communicate
serve
surface
comes
focused
latest
believe
follow
thank
method
woman
changed
consumption
reliable
laptop
lines
monitor
report
organizations
accurately
analytics
act
began
fresh
brand
categories
france
dogs
lived
2020
benefit
implications
outside
parts
tense
adjectives
beneficial
brown
dioxide
improving
passage
remain
saw
sweet
brave
causes
international
milk
achieve
challenge
desired
eyes
amounts
document
fossil
random
located
predictions
material
yellow
amazon
conclusion
highly
memory
thought
engineering
fuels
stories
cream
disease
languages
moment
walk
avoid
replace
watch
##ness
favorite
lifestyle
similar
spending
vibrant
cake
dataset
facts
organized
classification
demand
mix
series
teacher
led
machines
privacy
trust
week
degrees
medium
reading
remove
revolution
thinking
collaboration
num
third
balance
cannot
garden
square
trying
definition
doing
outline
really
called
ethical
fast
players
smaller
tablespoons
characteristics
dinner
organic
card
covid
employee
investing
engine
longer
18
impacts
path
perform
workplace
delicious
loss
concise
tweet
career
cm
expected
members
outcomes
reality
introduction
yet
##able
educational
heard
laws
original
citizens
platforms
prevent
weight
engagement
interactive
wanted
attention
conversation
flow
late
alice
fear
##3
14
count
delivery
cups
drive
took
www
developed
gas
national
resulting
ultimately
yes
effectively
finding
jobs
##on
ancient
author
interest
advice
eat
grammar
recently
limited
center
century
dish
password
##0
16
dear
details
operations
recommend
particular
evidence
headline
period
places
rules
started
actions
connection
groups
pressure
dreams
months
sequence
inside
presentation
prime
rain
blockchain
display
goods
greenhouse
generally
respect
##p
emotions
fire
iphone
star
encourage
eye
feet
traffic
bird
errors
excited
giving
street
creativity
discuss
olive
tax
waves
capital
express
extreme
flour
mission
offering
scale
option
won
dialogue
fruit
mean
tone
visual
##us
join
strange
analyzing
foods
represent
south
chicken
freedom
named
president
recognize
required
##h
call
college
projects
slowly
survey
board
powder
smith
consists
cool
early
among
awareness
background
ready
recycling
elephant
leaves
planning
advanced
again
cell
poverty
scientists
score
continue
enabled
engineer
lost
policies
trip
proper
sets
fact
middle
optimize
grow
growing
ve
village
vision
creatures
innovative
quick
released
road
valid
experiment
quantum
train
##ment
compared
electricity
investment
knew
oven
classes
smart
dream
maximum
selection
tracking
campaigns
hidden
pay
studying
close
clouds
effort
fields
height
hypothesis
presence
variable
door
golden
peaceful
verse
facial
feelings
oxygen
encourages
movies
noinput
theory
##ers
campaign
usage
virus
child
documents
reasons
starting
stores
trained
13
conflict
friendship
prepare
websites
##c
advantage
shared
base
box
got
shows
valuable
america
chocolate
payment
whole
##5
gender
king
lot
mass
amazing
behind
enables
powered
timeline
adding
reduced
error
month
alternative
dragon
leader
meal
ran
rest
td
loop
miles
supply
extract
movement
##4
allowed
consumer
enable
focuses
format
office
asked
invest
combination
flexibility
gentle
soft
taste
already
breaks
chemical
decrease
japan
max
onion
universe
above
chatbot
civil
clothing
composed
exploration
though
##in
instruction
match
depending
entertainment
general
near
spend
anything
cultural
everything
regulations
soil
thoughts
battle
coming
experienced
respond
scene
##g
remember
considered
europe
industrial
pan
500
chorus
cooking
darkness
diverse
introducing
stop
winter
anxiety
appliances
efficiently
film
formal
governments
numerous
remote
begin
chart
fill
engage
influence
tall
teams
##9
germany
thing
bar
cultures
emails
parents
receive
##x
advertising
describes
detailed
discounts
fiction
handle
index
affect
coding
creature
therefore
vegan
cut
scientist
17
functions
savings
stand
classic
combine
dishes
everyday
implement
launch
potatoes
cases
ii
informed
operating
season
##ic
adjust
ahead
finish
manner
protagonist
protection
built
cooked
direct
mistakes
motion
whereas
comfortable
limit
reviews
robotics
taxes
vast
chance
circle
collect
cycle
death
increases
justice
managing
preferences
spanish
vegetable
24
bread
capabilities
onto
sample
scenario
themselves
walked
autonomous
balanced
emotional
followed
ideal
mixture
nlp
oranges
under
vacation
##k
breeze
competitive
exciting
expensive
identity
records
wall
bridge
completed
etc
gases
north
photo
rewards
suddenly
utilize
##b
competition
forces
plans
reverse
seemed
became
crisis
himself
cells
fit
infrastructure
kitchen
significantly
spent
stored
useful
arrange
basketball
commonly
credit
independent
java
opened
say
adjective
conservation
extra
helpful
interview
loves
slow
talk
tomatoes
variables
40
damage
emotion
len
maintaining
outcome
outdoor
pattern
##or
##ting
ball
bias
canada
held
lake
longest
rock
studies
industries
motivated
paris
bake
breakfast
came
factor
nearby
nothing
transactions
lights
persuasive
pizza
stir
destination
organisms
predictive
prioritize
schedule
conveys
degree
fewer
happiness
linear
rice
technical
efforts
library
mathematical
sarah
accessible
battery
snow
layers
principles
##ion
category
harry
optimization
aware
cover
expenses
guide
label
region
returns
symptoms
translate
architecture
leave
pick
causing
flight
font
intelligent
saving
supervised
union
comfort
ecosystems
hands
keeping
routine
shop
##le
bad
begins
burning
capable
celsius
fuel
gives
legal
math
suggests
california
edge
secrets
sounds
conversations
landscape
looked
script
searching
skin
version
videos
beginning
election
labor
leads
recommendations
server
##7
critical
egg
jack
plenty
properly
record
##ity
##u
cards
diversity
ensuring
navigation
quote
shapes
worked
define
private
sauce
sharing
##6
brainstorm
communities
divide
grocery
interests
letters
manager
meditation
speaker
utilizing
##ism
enabling
fight
innovation
unexpected
##nt
draw
entire
facing
flowers
id
##an
added
##8
university
camera
currently
genetic
greatest
rich
sight
2019
2x
anyone
describing
evening
listening
missing
mood
probability
realistic
##rs
containing
gift
mark
root
staff
sunlight
bear
beyond
malicious
talking
thus
trade
##ation
##less
comprehensive
difficulty
fox
hardware
jane
listen
native
poor
wildlife
core
implementing
incentives
javascript
logical
lunch
manufacturing
regression
bill
classroom
creates
fahrenheit
fall
forever
incredible
insert
mountains
nations
tomorrow
treatments
cleaning
faced
lion
memories
pros
reaching
starts
200
boost
confidence
depression
grand
historical
smartphone
workers
authentication
discovered
noise
reminder
ride
six
complexity
habits
requirements
women
wrong
achieved
coronavirus
discovery
involved
nuclear
serious
sincerely
vehicle
brain
mouse
tailored
cons
hear
lastly
met
san
tea
wild
2021
africa
brings
doctor
dress
dry
heavy
incorrect
looks
markets
secret
treatment
3d
45
billion
birthday
confident
convenience
enter
fly
kept
potter
##ia
apps
central
concepts
european
los
musical
organize
physics
protecting
romantic
estimated
strings
visualization
aspects
bananas
capture
establish
expectations
fashion
generation
knight
mary
passed
rather
settings
yoga
##f
contribute
dangerous
datasets
deforestation
linked
proverb
rose
strive
apply
binary
carrots
collection
rule
speaking
staying
teaching
tech
21
approximately
audio
museum
alone
assign
blood
castle
choices
diced
enjoyed
microsoft
oriented
photosynthesis
prepared
responsibility
technique
unknown
##ling
advances
answers
bought
disadvantages
distributed
manual
node
schools
survive
switch
upcoming
update
weeks
although
grammatically
juice
tend
adventures
angeles
boy
camping
developers
final
imagine
intuitive
meters
names
slogan
supplies
consistent
direction
ended
generated
london
opening
pain
relax
visuals
##ful
appreciate
biodiversity
exchange
neutral
rates
responses
tv
bold
commerce
connecting
crime
frequency
integers
investments
mammal
passive
played
connections
finance
haiku
literature
maintenance
meals
passion
reaction
realized
welcome
window
woods
##ies
analogy
banking
buying
carefully
descriptive
detail
flower
interpret
learned
loved
widely
##ive
aid
bob
button
comparison
overview
perspective
sunny
swimming
assess
implies
orders
television
vector
cross
discussing
dynamic
forget
furniture
hour
install
particles
send
abstract
bags
bringing
cuisine
equipment
half
hi
moral
passionate
productive
round
sent
structures
wave
british
broken
condition
gave
genre
island
ones
picnic
showing
biggest
candidate
combined
distant
introduce
map
moments
surprise
tower
alive
constitution
decide
discover
encountered
reached
retail
separate
struggling
walls
arrived
breaking
calm
distinct
mammals
nouns
parameters
phones
properties
revenue
sorted
structured
themes
transfer
watching
bank
horizon
potentially
rearrange
spelling
stands
storm
sustainability
ten
closer
consumers
designing
flexible
la
parties
standard
##en
##ted
##°c
assistants
destruction
encouraging
fitness
habitats
interactions
keyword
maximize
menu
race
release
transport
80
divided
emergency
identifying
minute
phrases
standing
yesterday
##man
affordable
gone
hold
obstacles
radius
roles
wealth
affects
almost
correctly
mexico
resolution
reward
row
satisfied
skillet
sunset
wish
##re
applied
bit
css
directly
external
foreign
formula
lemon
messages
shoes
speak
##ne
continues
finds
flavor
gathering
george
implemented
initiatives
keywords
leaving
molecules
monitoring
occur
punctuation
singing
truly
unable
##te
articles
challenging
double
failure
link
preheat
reduces
symbol
synonym
tests
tom
touch
transform
##ate
##is
honey
pie
wearing
ate
attitude
availability
cognitive
collected
especially
footprint
generations
minimum
moving
scalability
traits
achieving
corner
criteria
endangered
enhance
exam
grade
inch
pre
professor
restaurants
stumbled
##ble
32
brief
forests
itself
notes
representative
robotic
standards
bottom
italian
pour
resilience
soda
windows
african
beliefs
continued
electronics
glass
leadership
legs
onions
opinions
particularly
planets
refers
resource
screen
stocks
cancer
diagnosis
idiom
insight
loyal
moves
representation
serves
shining
chinese
concerns
continuous
fraud
inputs
inspiring
intense
managed
median
vanilla
avoiding
bag
bell
bike
chair
couldn
featuring
gather
interested
objectives
perspectives
rapidly
##ce
appreciation
father
inquiries
motivation
professionals
surrounded
wonderful
worth
chain
court
decreased
depth
desert
driver
electrical
interaction
june
patients
promoting
rabbit
received
rolling
situations
sql
wait
warmth
wellbeing
char
demonstrate
div
fix
lasting
otherwise
powers
wants
90
cube
effectiveness
gravity
included
liquid
nuts
performing
processor
snacks
bond
democracy
inequality
involving
loud
mars
newfound
produced
reflect
shift
spam
spot
teachers
technological
washington
wear
##ous
courses
expand
front
laughter
occurs
pair
sadness
sign
turning
alien
assistance
carry
dance
dedication
gatsby
goes
happen
homes
mystery
salad
shirt
sleeping
updates
visiting
volume
wise
ads
breath
files
francisco
gaming
gold
incredibly
inform
nutrients
pass
plays
possibilities
slices
streaming
affected
born
characterized
databases
evil
fair
hair
minerals
oceans
opposite
payments
phenomenon
proteins
remains
skill
synonyms
##th
adapt
automatically
capacity
collecting
completely
empathy
healthier
integer
principle
reports
smile
##est
##um
emphasizes
majestic
nation
press
quiet
reusable
shown
summarizing
tomato
##ization
abc
academic
accounts
adverb
agreement
appear
colorful
exercises
fibonacci
hosting
indicate
pets
pursue
signs
status
##izing
angle
chopped
concentration
frequent
gonna
impossible
military
picture
protein
rainforest
sandwich
shadows
tokyo
width
closest
discusses
encryption
helped
invention
peak
prompt
quantity
quite
relaxation
smell
thick
unit
wrote
22
beans
brought
clearly
cutting
detection
guidance
habitat
huge
improvement
later
lighting
navigate
queries
seven
simile
smooth
stage
tablespoon
visitors
##ge
##ist
abilities
anywhere
apologize
chatbots
compute
delete
evolution
figures
happened
propose
sand
soccer
win
##ry
de
diabetes
disruption
equivalent
formed
independence
lyrics
noticed
property
reader
request
seo
shorter
stepped
stunning
succeed
tropical
vitamins
weekend
willing
wings
yogurt
60
appears
believed
determination
didn
environments
finished
photos
pollutants
rely
revolutionize
stronger
typical
wizard
accepted
empty
facebook
formulate
funny
grown
kids
optimizing
overcome
prediction
regardless
securely
views
watched
collaborate
consideration
ease
eco
estimate
foster
incorporate
indian
layout
locations
lush
moved
networking
nutrition
odd
soup
spinach
split
timely
treat
approaches
arms
bus
clarity
completing
drawing
drinks
focusing
hey
imperative
politics
populations
presented
pro
regions
replacing
seek
sharp
similarities
smallest
soul
stone
turns
unemployment
##z
agriculture
behaviors
breathing
calls
developer
emphasize
football
iconic
mindful
pm
returned
served
spirit
visited
zero
35
bed
branch
comedy
conserve
ending
hunt
inspired
joke
none
numerical
purchases
threats
unnecessary
##ent
##ts
classified
ends
equations
harm
horror
lessons
pages
participants
requests
resume
runs
rye
salary
twitter
75
beat
catcher
client
commitment
constantly
diagnose
extremely
hat
processed
profile
qualities
rank
revolutionized
##st
afraid
comparing
dedicated
losses
meat
member
metal
rural
truth
urban
##ch
corresponding
families
giant
likes
marine
mathematics
melting
mid
org
pronoun
quest
seeds
syntax
##ally
cafe
cash
catch
deals
drinking
grass
motivate
princess
readers
reflects
tiger
uk
##ping
accept
boat
column
east
kit
km
medicine
offered
organizing
pot
produces
sport
statements
trend
advancements
explanation
investors
links
neurons
owners
printing
raise
sensors
serving
site
stick
apart
closed
clothes
excitement
joe
matrix
oh
radiation
tested
whenever
branches
curious
declarative
enhanced
file
guess
internal
massive
mundane
nice
printer
reason
spring
stability
unsupervised
arctic
block
convenient
employment
farming
fully
h1
housing
outdoors
possess
producing
purposes
sensitive
stages
tr
transforming
visibility
vote
artist
australia
basis
channels
drink
host
labels
overwhelmed
passwords
previous
ram
route
sector
sorry
stopped
streets
1000
adequate
boundaries
brightly
calculated
columns
deeper
drug
engines
enjoyable
established
explored
expressed
forming
impressive
inches
labeled
mistake
modify
predicting
proposed
reminders
repeat
revolutionary
severe
sorting
teeth
##v
28
april
assignment
broccoli
escape
gdp
inviting
paraphrase
proud
rapid
reword
sizes
suspicious
teach
transition
##ra
carrot
covered
discussion
explains
farmer
italy
magic
package
poster
purchasing
rating
recycle
sometimes
translation
underlying
##w
accordingly
calming
celebrate
deadlines
faces
fantasy
hydrogen
inc
jumped
lowest
net
protocols
statistics
tale
targeted
texture
##ian
agricultural
boiling
cinnamon
combat
deal
designs
disaster
discovers
discussed
dna
empire
insurance
intensity
minimize
moreover
note
packaging
police
posts
presidential
prince
push
roasted
verbs
android
attacks
awe
chronic
construction
danger
dealing
editing
foundation
holiday
hotel
immediately
implementation
leverage
log
meets
plus
recognizing
refer
regulate
seconds
selecting
spain
struggles
successfully
visible
alternatives
arguments
click
console
creation
crop
domain
generating
iron
men
mindfulness
mount
paths
resolve
rhyme
sites
vivid
##°f
atomic
buildings
chips
cleaner
federal
fictional
filter
galaxy
heavily
kindness
lists
metrics
primarily
profits
remaining
retrieve
rome
statistical
stirring
##el
ages
bee
centuries
consuming
cyber
defined
drastically
ensures
floods
loan
min
prefer
procedures
spoken
styles
submit
toast
toy
##ie
ago
clustering
coral
debugging
decade
discrimination
dust
engaged
equality
expresses
fat
fatigue
integrity
mining
programmed
puzzle
ranging
renowned
rivers
section
seem
shipping
william
##ped
##ter
27
afternoon
discovering
distractions
grilled
leaders
leveraging
paid
pen
peppers
pink
slightly
strengths
titles
treasure
usa
vegetarian
visually
vocabulary
voting
whose
##ant
ascending
beef
blanket
clause
devastating
female
funds
harmony
improvements
james
japanese
monthly
narrative
pasta
robert
simpler
traveling
units
username
##ized
23
400
achievable
alert
attack
attend
coastal
conduct
department
distribution
observe
rainbow
tells
transformation
2018
adults
captures
choosing
debt
exercising
flew
fundamental
knowing
majority
percentage
plot
psychological
scheme
simply
str
tried
url
##os
api
append
collective
debate
doesn
flag
honest
inner
lesson
millions
pride
reliability
suited
wonders
##se
aim
command
compound
criminal
identified
memorable
salmon
seeing
selling
solid
sophisticated
storing
tables
worldwide
##ize
automating
autumn
backgrounds
component
conducted
currency
entry
herself
illnesses
influencers
iot
obtain
passing
saying
shore
waiting
##ine
3x
70
addressed
brazil
chess
commands
decimal
dense
evaluation
grains
hit
immense
import
melody
nodes
nutritious
paint
personality
plate
potato
prints
prize
rays
reinforcement
significance
solved
spaces
supports
unprecedented
updated
via
00
asking
assist
attending
attractive
busy
cloves
cozy
employers
expertise
facilitate
frozen
initial
interrogative
loneliness
muscle
purchased
researching
sheet
stakeholders
station
struggle
surveys
symbols
uncover
wireless
##et
blocks
candidates
disasters
enjoying
fats
flying
frame
grateful
greek
imagery
lay
meetings
minimal
nums
objective
participate
regarding
relatively
relief
responsibilities
reuse
sending
slice
##tion
agent
avocado
constant
groceries
mitigate
mouth
optimal
pop
practical
precipitation
responding
shelter
subscription
winds
##de
##ty
actively
asia
beneath
browser
chicago
classical
colleagues
containers
everywhere
frequently
graphics
influential
logic
mainly
mask
operate
pacific
placed
pleasant
profit
recycled
scheduling
segmentation
shaped
smoothie
streamline
sunshine
walks
west
##it
29
accomplishment
applying
aside
bonds
dependent
described
dictionary
greatly
illustrate
impacted
instance
rectangle
romeo
told
xyz
yeah
##ated
##nce
atoms
bacteria
banks
cave
droughts
exist
familiar
freshly
fund
hero
investigate
packed
preserving
profound
roads
snippet
strategic
thanks
washing
##ance
amazed
attractions
catching
combining
considerations
directions
filling
fourth
graph
harmful
plastics
roman
silver
static
surrounding
wider
##ary
alex
artwork
brighter
closing
drama
electronic
execute
hiking
household
lies
manageable
mother
movements
myself
passes
pencil
preventing
tourist
augmented
careful
chosen
contributions
deliver
democratic
einstein
exposure
guidelines
hearing
humanity
juliet
multi
portfolio
preparing
roots
wikipedia
##ar
##ck
##ur
##ving
adapted
angles
blend
budgeting
butterfly
calendar
childhood
convolutional
draft
economics
egypt
embrace
floor
forgotten
fought
handling
iii
immigration
inventory
ledger
peanut
smoking
tesla
ventured
victory
vital
wet
wonder
150
announced
annual
berlin
combines
density
drop
emphasis
enthusiasm
environmentally
fold
german
gradually
gravitational
guitar
inspire
july
matches
meant
pricing
qualifications
reference
simmer
universal
wood
2008
300
angry
bodies
border
cast
crops
decline
differ
equipped
establishing
films
gently
grew
hashtag
horse
imagination
measuring
melted
num2
painted
plane
practicing
previously
purple
quinoa
recipes
removing
rises
rocks
seeking
speeds
storms
switching
tired
trading
transaction
witch
ambitious
becomes
canyon
cryptocurrency
dates
decades
desire
determining
digit
doe
entering
evenly
flavors
gets
marked
ownership
precision
queen
sad
shakespeare
strawberries
summarization
vary
viruses
accounting
advance
agile
beloved
charles
chemicals
co
convey
depths
doctors
encouraged
experts
gap
gathered
grammatical
jump
lightly
nobel
num1
priority
recommendation
reduction
reliance
remarkable
remotely
researchers
samsung
saved
signals
thousands
vulnerable
##na
agree
anti
appealing
balloon
coat
compile
composition
displays
england
examines
expressing
fine
holds
largely
luxury
mostly
official
organism
organizational
representing
resistance
sam
smartphones
sodium
stood
uncertainty
absorb
bedroom
cameras
captivating
charge
commercial
considering
die
dollars
highlights
launching
luck
ongoing
owner
polar
preparation
rent
seeks
snack
survival
tail
widespread
##led
advertisement
americans
appeared
baby
closely
container
craft
declaration
doors
dough
endless
factory
fever
fi
gaining
instruments
kill
launched
lazy
limits
minced
peers
protocol
respiratory
russia
ship
stranger
surroundings
tour
travelling
usability
weaknesses
##ve
accessed
checking
corporation
entrepreneur
era
experiments
flooding
functioning
fur
gun
insects
lord
optimized
parks
roll
sale
strawberry
suffering
upper
whale
whatever
wolf
##les
adult
adventurous
agreed
arrive
atom
comments
conclusions
definitely
ecosystem
edges
elif
everest
informative
institutions
manipulate
nine
ourselves
outputs
particle
portable
reaches
relativity
relies
scores
suggestions
tagline
wake
##cy
##ial
##id
##ors
##ure
anger
boston
calories
chef
delight
eager
expect
expressions
findings
glucose
hills
invaluable
lightning
lonely
partner
philosophy
recommended
recovery
regulation
respectful
silent
stroke
##il
assessment
attract
blank
bottle
bustling
cheerful
comment
continent
dairy
desk
distances
drivers
fabric
faith
falling
fishing
fixed
illuminated
master
piano
psychology
radio
repetitive
sights
silence
starry
teamwork
threat
writer
alphabetical
amendment
axis
brilliant
charity
clients
conflicts
counter
cyberbullying
descriptions
eight
graphic
kinds
li
relations
sitting
sold
soviet
youtube
##ms
##ns
ad
albert
answering
arise
basics
believes
boil
chill
concern
customize
dimensional
economies
exposed
globe
instagram
lose
masks
measured
mode
mutual
october
promotions
pull
quarter
quiz
repeated
represents
shone
simplify
sprinkle
taught
turned
ups
weights
wheel
addressing
analyst
asset
assigned
attempts
belonging
bigger
brush
cheaper
clock
colored
compassion
cookies
educate
extensive
farmers
firstly
hunger
immersive
immune
informal
intended
lean
metric
miss
mushrooms
operation
palindrome
panel
providers
scared
sections
serene
smiled
startup
stretching
supporting
th
tiny
traveled
utilizes
wars
wasn
##ding
##ish
20th
agents
cardiovascular
couple
crowd
crust
engineers
failed
forced
grace
humorous
jungle
kilometers
religious
remembered
resulted
rewarding
robust
safely
sit
studied
tag
van
vinegar
waters
##line
##tic
19th
acid
actually
attributes
august
batter
breathtaking
carries
caught
charging
conference
crash
creamy
distancing
drove
expanding
falls
ginger
happily
highlight
improves
kg
lengths
literacy
pace
polite
published
relational
relative
respected
thesis
tough
unlock
viewers
violence
vitamin
wins
wooden
worry
##land
almond
assets
assignments
audiences
biased
chili
compares
complaint
designer
forecast
intricate
iterate
laugh
march
modeling
modified
outlines
parallel
periodic
scissors
thin
warning
whisk
worries
##as
##ged
acceleration
accessibility
accomplishments
bulbs
circuit
completion
dancing
desktop
difficulties
divisible
eagle
earned
evaluating
fees
gene
grey
heads
hobbies
http
hue
iv
keeps
pool
raining
responsive
sell
stuck
ticket
vacuum
##ability
##ue
33
42
99
absolutely
accessories
baked
entity
installing
introduced
learns
messaging
possibility
ray
religion
restore
salinger
scavenger
sing
successes
travels
yields
##ging
##med
##ta
37
abundant
advancement
antonym
assemble
authors
auto
bars
brother
catchy
converted
cooperation
curiosity
depends
digits
displacement
eiffel
fiber
funding
gained
glow
gratitude
gray
integral
integration
intervention
interviews
keyboard
male
newton
notifications
origin
panels
phase
reads
reported
respective
rhetorical
shades
showed
snake
surfaces
terrible
theorem
transparency
wisdom
##px
##rate
##ton
26
abandoned
accomplish
achievements
authority
belong
celery
centers
custom
dolphins
emergence
expert
grease
hazardous
herbs
hobby
hurricanes
instrument
lots
nitrogen
pack
procedure
promotional
provider
reflecting
reflection
restrictions
songs
suggested
supportive
temp
thomas
validation
wash
appearance
biases
circumstances
contributing
controlling
copy
covers
delivering
dried
el
electrons
eliminating
evoke
exact
excerpt
fate
finances
founded
frustrated
galaxies
grid
hash
historic
immediate
momentum
nearly
personnel
populous
promotes
racial
represented
spices
tackle
thunder
urgent
vaccine
velocity
##00
##ned
##tive
arm
arts
atmospheric
attempt
automatic
barked
basket
birth
blues
chat
conscious
contract
controlled
crisp
dangers
delivered
excel
executive
factorial
imaging
indicates
lightweight
lit
minor
pairs
parmesan
popularity
preserve
proven
steady
strengthen
subtle
template
temple
thoughtful
trump
twice
twinkle
##ating
##ier
##king
##ro
##°
1⁄2
airport
calculating
carrying
coins
comma
competitors
cope
dr
eliminate
esteem
farm
foot
granted
hearts
hill
ingredient
initiative
integrated
ip
lands
liberty
lisa
mixed
ml
motor
oldest
patience
pitch
pushing
rap
ratings
raw
react
refrigerator
shade
specialized
spell
stack
stylish
sudden
targeting
transmission
unforgettable
villagers
wages
wealthy
##ious
##ium
##tor
carbohydrates
committed
complaints
excessive
explores
frog
god
incorporating
influenced
lst
methane
multiply
omelette
optimism
peter
photography
pressing
rings
sunrise
tender
un
unpredictable
verbal
wine
##ks
##que
64
anticipation
biden
chemistry
compelling
corporate
declared
deeply
delighted
despair
differentiate
disorder
dramatic
exhausted
extinction
formation
fraction
gifts
giraffe
happens
homework
illness
interior
isn
lettuce
loudly
loving
malware
muscles
nearest
noodles
northern
promotion
rocket
saturday
societies
speaks
spoke
tactics
teenagers
texts
turkey
unauthorized
valley
western
winning
##out
2017
36
appointment
chose
consist
crew
daughter
david
deploy
elderly
fail
feels
fried
fry
goodbye
hypothetical
keys
libraries
literary
normal
outlook
paragraphs
pleasure
prey
pursuit
raising
readability
requiring
sells
servers
southern
spark
teaspoons
theories
therapy
tranquil
traveler
treated
umbrella
weapons
##ence
##ps
##up
4x
actors
chunks
collaborative
deck
descending
developments
emerged
energetic
entrepreneurs
erosion
feed
flat
fluffy
glad
grant
holding
hundreds
lee
magnetic
mechanical
mechanics
mockingbird
nutrient
pictures
precise
protected
receiving
shall
squares
suit
texas
thrive
transparent
wage
##ir
##ments
##rd
##ze
2000
55
administrative
adoption
bug
ceo
checks
chest
circles
cnn
consume
contribution
crucial
detecting
dreamed
extracting
fascinating
filtering
functional
grows
helium
hide
hybrid
intent
interpersonal
islands
monster
multiplication
optimistic
physically
proactive
raised
relaxed
releases
republic
serenity
sleek
slide
sub
tent
ultimate
uncertain
##me
##rt
##ut
##way
capitalism
checkout
chip
conducting
cooling
cycling
decreasing
exclusive
gogh
greeting
hole
journal
jupiter
mango
marks
penalty
poetry
presents
prior
proof
reasoning
representatives
sat
seems
shoulder
summarizes
thrilling
wishes
zone
##am
##ma
##ring
123
alcohol
alright
animation
applicable
cart
chairs
coconut
december
destinations
dietary
durable
eaten
examining
fighting
gardens
inconvenience
independently
instant
interconnected
json
laptops
maintained
martin
meadow
moonlight
nose
operational
outer
parent
positions
prominent
prompts
reasonable
referred
router
rows
seafood
similarity
slower
tension
twinkling
unhealthy
whisper
workflow
##ities
34
actual
airplane
analytical
beaches
composting
corners
demographic
diagnoses
discount
drawbacks
emerging
entered
expansion
fastest
flows
heading
hike
hospital
jewelry
jumping
laughing
leap
learners
limiting
manipulation
nutritional
observed
occasionally
oppressive
palace
perimeter
periods
perseverance
promise
releasing
retirement
reversed
says
signed
sorrow
sought
super
supreme
taxation
titanic
tremendous
turtle
winner
##cing
##ds
##j
##ley
##per
absolute
accomplished
acts
athletes
bottles
brands
celebrated
conserving
cubes
decorations
depend
employer
entities
epic
evolved
fifth
genres
guests
hiring
ios
isolation
knife
mentioned
observation
oregano
pesticides
refine
sunscreen
tennis
theft
turing
##da
##ite
##ri
##son
##time
1945
65
ambition
assembly
bubble
ca
caffeine
calling
clever
cloth
coin
congestion
connectivity
contained
coordination
customized
defense
diets
drives
embark
embracing
en
enjoys
evaluated
firm
frameworks
geothermal
humidity
indicating
mph
outfit
overwhelming
paying
performed
prevention
prove
reef
remind
replaced
smarter
sorts
strict
supported
thoroughly
trial
trouble
tuesday
tune
utensils
venture
void
vr
warmer
wheat
##age
##ll
54
alphabet
attach
avengers
bicycle
biological
biology
caps
club
coal
conversational
cotton
crystal
destiny
experiencing
fills
generous
houses
inclusive
installation
joining
knows
korea
planting
relaxing
renaissance
revealed
satellite
shine
spaghetti
vs
whales
##ay
##by
##ern
##ible
##ning
##ron
admire
al
aquatic
autonomy
awards
barrier
blender
broth
casting
chaos
contracts
corporations
countryside
decreases
examine
exists
favor
fears
flashlight
fog
followers
gardening
heated
households
landing
lifetime
loading
locate
magnitude
oak
oats
palette
puzzles
relying
resilient
saves
sliced
softened
straight
superhero
surveillance
timeless
tuning
tutorials
unlike
worst
##ming
##py
##ves
5th
adaptive
alarm
alliteration
anticipate
atlantic
basil
belief
calculations
charts
climbing
compounds
correlations
courageous
criticism
da
daisy
daring
domestic
drastic
drugs
fits
former
frost
geographic
glaciers
grain
invite
january
jpg
landmarks
list1
neck
obesity
oneself
participating
personalize
pineapple
portion
programmer
recall
reefs
regards
respiration
rhythm
sang
scott
signal
skies
st
straws
suggestion
syllables
tip
voices
workforce
x2
##der
##ened
##ke
##ls
##ons
##to
800
acceptance
acidification
actor
anna
astronaut
backyard
biking
climb
consistently
corn
cybersecurity
directed
doubt
duration
elephants
emphasizing
ethics
figurative
gasoline
h2
heating
initialize
knowledgeable
legislation
michael
neighborhood
newspaper
occurring
older
optional
paul
pun
reactions
recipient
roses
scenarios
sectors
shortest
showcase
sir
sister
smoke
spider
stayed
storytelling
surprised
tags
tickets
unfamiliar
vegetation
wi
wonderland
youth
##ded
##ey
##ot
##pe
1984
250
255
5g
acting
alike
arranged
barriers
belongs
casual
circular
colour
consumed
contributes
coordinates
deployment
destroyed
dynamics
fairy
fake
fell
flip
graphical
hire
inappropriate
joyful
legacy
leisure
marketplace
mild
neither
netflix
obama
okay
ounces
personalization
prejudice
regret
reptile
seat
secondary
spacecraft
sparkling
squared
stable
suggesting
tire
toppings
versatile
winding
workout
younger
##bs
##go
##ny
##sing
48
addresses
adds
adjustments
adopt
adversity
bacon
bark
bears
boss
bot
celebration
cholesterol
cite
cluster
companionship
cow
customization
deadline
derived
division
emission
entertaining
factories
framework
grandmother
grapes
hammer
highlighting
installed
insulation
kale
landfills
marathon
mediterranean
mile
minister
monkey
mysteries
nile
notation
orbit
ordered
pounds
scope
son
strain
swap
telephone
thanked
transformed
##gle
##ler
31
accountability
advocacy
affecting
afford
aged
apartment
approximate
baseball
beginner
clearing
co2
competing
complicated
countless
crafted
cumin
decentralized
devise
eastern
enchanted
eu
extended
filters
godfather
hate
honor
hoping
inadequate
inflation
jeans
laughed
neighbor
observations
ordering
packages
passengers
proposal
riding
rocky
setup
shares
spare
speakers
statue
striving
strongly
subtract
telling
toys
unseen
##cies
1989
95
achievement
agency
argue
arrays
aspect
bills
breaches
calcium
concrete
converting
costly
curved
deer
dice
discipline
drift
encrypted
exactly
extraordinary
fallacy
friday
grades
harder
influencer
interfaces
lasagna
manually
meanwhile
nights
occupation
odds
outgoing
predators
predicted
realize
references
repair
reptiles
riddle
roller
tallest
throat
thursday
toward
unethical
vaccines
vowels
worse
##at
##ification
##la
adopted
allies
alternate
appeal
booking
consistency
constructed
defeat
deserts
digestion
disadvantage
donate
drain
drawn
emily
extraction
fierce
gates
incentivize
lying
matching
minds
obstacle
opponent
overhead
owning
rhyming
rowling
scent
shrimp
soaring
span
specified
spreadsheet
steam
steve
sword
tailor
tedious
trusted
universities
vincent
volcanic
webpages
wedding
wherever
##ics
##ise
350
adjusting
advocate
aids
anomalies
antivirus
assisted
backup
band
behaviour
believing
bravery
cable
caesar
cartoon
cautiously
civilization
climates
companion
concerned
confirm
controls
cpu
debug
demonstrates
disk
emma
evolving
executed
fairness
fan
florida
freeing
gate
gps
hesitate
hormones
indoor
infectious
inflammation
insect
jazz
lab
lakes
leonardo
limitations
managers
matters
medications
mnemonic
neuron
petals
reform
scans
seattle
secondly
semi
shelves
shines
skilled
smiling
soap
soy
spray
steel
stream
suffer
suppose
terrain
trap
valued
varied
##ative
##back
##board
##cm
##ified
##ists
accident
acquire
adaptation
aerobic
ain
army
artifacts
association
astronomy
batteries
bones
britain
chirping
classrooms
clusters
computational
congress
consisting
constructive
contents
continuously
conversion
coverage
deaths
deciding
differently
displaying
elected
equitable
execution
fertilizers
ford
generative
gorilla
greece
habit
heights
hint
hues
immutable
inspiration
interpreting
irony
mona
mortality
november
nucleus
parsley
println
rainfall
ranges
receives
refreshing
repeating
reusing
revolutionizing
romance
shelf
soothing
specifically
stitch
tales
tonight
trail
unusual
venus
##10
##ba
##ca
##cious
##do
##ft
##ga
##sh
3y
administration
applicant
bulb
burden
bush
cabin
claim
clues
coast
combinations
compete
confused
defining
delicate
dependence
download
ears
employed
endurance
extend
featured
festival
graphs
hungry
hydropower
hypotenuse
illustrates
incorporated
infections
investor
jumps
laid
latin
limerick
maria
metaphors
monitored
naturally
newest
notice
null
organs
overfitting
papers
playful
presenting
promised
prototype
rare
removed
specify
spreading
sticks
subset
substances
tart
teenage
tie
trace
tragedy
tranquility
trips
vinci
zoo
##array
##ct
##ka
##ol
5x
67
accessing
accused
alexa
algorithmic
capability
citrus
compassionate
continents
cryptography
damaging
designers
determines
develops
dining
dividing
divine
editor
elections
enemies
entirely
evolve
flowing
geographical
hang
hardworking
humor
infection
landscapes
lift
linux
load
loans
lowercase
maps
methodology
monday
morality
oatmeal
occurred
parse
penny
plates
plausible
plural
posture
preferred
protective
pure
recognizable
responsibly
retention
rubber
rubik
ruler
seemingly
shredded
spiritual
spoon
swim
themed
twists
underlined
verify
webpage
##ably
##ator
##down
##ked
##sa
##un
38
3rd
absorbed
actionable
advancing
analyse
analyzed
anxious
argues
bay
bc
blueberries
bound
builds
calculator
canvas
categorized
centered
classifier
concert
connects
copyright
defeated
dirt
explaining
flavorful
float
fortune
genes
grated
hamlet
hopes
hundred
hyperbole
impacting
impression
indirect
injury
inserted
integrate
interpreted
invented
landmark
lawyer
leaf
lighter
lime
louis
marketers
morale
multimedia
negatively
nervous
paintings
peaks
peer
pleasing
positively
progressive
punishment
pushed
quicker
returning
scan
seasons
selected
shark
siblings
sized
sour
stem
stimulate
stroll
talent
tends
terror
thailand
tofu
treats
trials
understood
unity
weak
wellness
##ised
##ute
##work
acronym
alter
amongst
arithmetic
attended
bees
broad
captain
continuing
covering
crashing
curve
dead
demonstrated
discoveries
displayed
distraction
dollar
dragons
ecommerce
enhancing
evolutionary
fantastic
fraudulent
garbage
header
influences
laundry
mexican
mr
naive
navigating
nobody
officer
performs
photograph
pond
pursuing
reply
reproduce
resistant
respectively
rustling
seating
sorcerer
spots
subjects
talked
talks
titled
tones
twist
unlikely
volunteering
welcomed
##bility
##ions
##red
##well
2016
56
adam
aggressive
aliens
antioxidants
applies
attempting
chased
cheetah
civilizations
coaster
colonies
contentment
cuba
dessert
detected
earlier
embraced
enters
factual
flights
fulfill
gear
geometric
hierarchical
highlighted
holidays
indonesia
interacting
melt
membrane
mercury
moisture
necessarily
nor
outlining
performances
phenomena
pi
protests
quantitative
randomly
rental
segment
separated
shifting
shimmering
shoe
showers
stormy
subsidies
sunday
tablet
tape
thousand
traverse
treating
unfair
willingness
##code
##ky
##name
##ses
##uring
2009
acquisition
adhere
amenities
announce
appointments
arizona
artifact
attached
awarded
bloom
boxes
celebrating
charged
compliance
compost
conjunction
cues
customs
deployed
dict
disrupt
drought
earthquakes
elevation
fed
fitzgerald
functionality
gains
grab
harsh
haven
homepage
honesty
humid
inclusion
infinite
interviewer
invitation
isolated
jar
jr
juicy
knock
letting
lined
lungs
marie
mentor
merge
mesmerized
occasion
orwell
paced
pear
picked
pigs
plagiarism
pocket
preposition
presentations
pumpkin
racism
ratio
refund
regional
register
roof
rounded
scenery
screws
shallow
slope
streamlining
surge
tastes
trait
trillion
underwater
unfortunately
unplug
uppercase
urgency
variation
visualize
worlds
yield
##ad
##dy
##ering
##list
##ration
##ud
##ular
##use
##ville
##ware
##zed
16th
1969
21st
43
44
accompanied
aluminum
asian
award
biodegradable
boolean
caring
carried
celebrity
circumference
cm2
comic
communicating
compatible
contacts
convince
correlation
counts
curie
detective
digestive
dilemma
eerie
electromagnetic
eliminates
employ
episode
equity
exotic
exponential
february
forth
gcd
gradient
grams
grill
happening
hustle
incoming
indicators
inquiry
invasion
invited
judge
kinetic
lifespan
likelihood
lions
n2
narrow
paste
pine
prone
proportional
putting
regulatory
relevance
reserve
reveals
richard
samples
sandwiches
session
signature
similarly
spectacular
steak
stove
syrup
teaches
theater
treaty
utilities
validate
vertical
victorious
volcano
volunteer
waterfall
welcoming
worker
##field
##ings
##tes
1950s
52
72
adventurers
advertise
aging
ar
automotive
blowing
browsers
buttons
calorie
citizen
civic
coach
contributed
cycles
demands
demographics
depicting
depicts
deviation
distinguish
dolphin
dread
droplets
exceed
excellence
fixtures
frogs
ft
gallery
generates
genetically
glasses
grounds
holden
hometown
hygiene
illuminating
immigrants
jim
jogging
joint
league
leather
lincoln
listener
login
luther
mahal
metabolism
migration
monetary
mozzarella
multitasking
musk
navy
newly
ordinary
overcoming
partnerships
percent
potassium
pound
powerpoint
premise
printed
protons
qualitative
rectangular
redemption
reunion
rewarded
scenes
scrambled
searched
singular
slides
societal
streams
substance
tim
turtles
uncovering
vapor
viewing
wouldn
za
##ants
##co
##pa
##rian
##ric
##ries
##zing
abundance
abuse
approached
assessing
battles
bayes
checklist
cocoa
comparative
compromise
contexts
conveying
designated
disabilities
distinctive
elegant
enforcement
explicitly
faint
fascinated
forecasting
forum
frustration
fulfilling
geography
harvard
identification
imagined
inaccurate
inhabitants
innovations
intake
invent
lately
lewis
locals
madrid
midnight
milestones
mini
minimizing
mischievous
mobility
offerings
parrot
participation
pleased
pointer
polynomial
preheated
prevalence
prevents
quadratic
recording
reputation
rhymes
scratch
sore
spaceship
specializes
superior
swift
tasty
thankful
threatening
tourism
traditionally
turbines
updating
usd
versus
vietnam
visits
x1
z0
##dle
##ger
##hip
##ide
##ily
##io
##ncy
##net
##ng
##ola
120
15th
2015
accountable
acknowledge
agenda
answered
anytime
artists
automobile
backed
bakery
br
breathe
camp
caribbean
carpooling
cellular
chances
cooler
cottage
cows
degradation
delay
desserts
diamond
disappointed
elizabeth
enthusiastic
entrance
equally
est
eternal
exceptional
fires
floating
formatting
fragrant
gods
graduated
holes
illegal
institute
le
legend
listed
lively
losing
mail
manipulating
mindset
molecular
molecule
monarchy
narrator
negotiation
noble
opt
parking
polls
pork
posed
profession
recorded
relate
remainder
reset
rooms
rush
saute
scattered
schedules
seed
semantic
sessions
sheets
singer
spectrum
sufficient
synthesis
tensions
thanksgiving
thermostat
tracks
weigh
wildflowers
woke
##au
##day
##mer
##nts
##pm
140
350°f
49
adverbs
aims
aircraft
ant
avatar
bachelor
behold
boiled
breed
burger
buyers
caption
capturing
chase
claims
classifying
confront
continually
conventional
copies
crossed
dawn
decor
departments
diagnostics
died
dimensions
discussions
duties
dystopian
embedded
emperor
estate
globalization
grants
hawaii
headache
hosted
houston
incentive
incident
incorporates
instantly
iterative
jones
kilograms
laboratory
lens
license
logically
lovely
magnificent
mechanisms
misuse
moderate
nba
needing
occasional
operator
perception
permission
personification
poems
procrastination
profitable
provoking
puppy
quit
repetition
sally
scripting
shops
shot
shower
simultaneously
sketch
soar
sonnet
startups
steamed
stolen
stricter
studio
surprises
suspense
thereby
threatened
tight
toxic
transitioning
varchar
varying
villain
violin
wipe
wishing
zip
##ak
##be
##che
##ea
##ening
##gs
##ical
##ni
##number
1990
600
85
a2
acids
addiction
airlines
alaska
alt
antarctica
attentive
attitudes
blooms
brick
ceremony
chains
circulation
clinical
colorado
comforting
compress
constraints
counting
cricket
critically
customizable
cute
demonstrating
derivative
extension
feathers
fence
firewall
flame
foliage
founder
friction
guided
homeless
hyperparameter
infected
injustice
interpretation
iteration
je
lasted
lie
liked
macaroni
margin
meanings
measurement
measurements
minded
nails
neighbors
norway
nurse
nutmeg
pathways
planned
podcast
poetic
popcorn
portal
posting
predetermined
preventive
promises
pronouns
pulled
pyramid
recover
reforms
registration
religions
remained
rescue
residents
revise
roughly
routes
safer
saturated
sender
september
shifts
simulate
sink
solace
sphere
squirrel
stark
str1
stretch
stripes
structural
sugars
summarise
taj
talented
targets
temperate
textbooks
tides
trivia
underneath
unstructured
var
variations
wallet
wow
zones
zucchini
##ered
##ile
##keeper
##ki
##my
##nd
4th
abstraction
academy
accountant
adams
admiration
agility
altitude
appropriately
arthur
attributed
bang
berries
bite
bliss
bluetooth
boosts
boots
brexit
browsing
brushing
bugs
centralized
cereal
cheddar
christmas
cloudy
commit
consequence
corruption
credibility
decides
decisive
deploying
diplomatic
donald
drizzle
dropped
entanglement
essence
exams
flu
grief
hazards
homemade
indoors
innocence
involvement
lecture
lectures
luxurious
mapping
marvel
mashed
massachusetts
metropolitan
mineral
museums
nasa
obtaining
originated
outlets
outliers
peel
philosophical
pig
recognized
recreational
regulating
relieved
resolving
s1
scales
searches
seasonal
shirts
shy
skyline
str2
stressed
stretches
submitting
surgery
tangible
thermal
thief
towns
transit
triple
wife
wordpress
##bi
##ction
##ied
##ins
##ip
##istic
##let
##lt
##rating
accidents
arc
argued
arriving
atp
beer
blew
brainstorming
brothers
browse
buddhism
burned
chrome
church
climax
communications
conferencing
confusion
controversial
converts
crescent
cruise
currents
curry
diameter
dreaming
earn
educated
establishment
evaluates
evident
excess
fails
fans
fertilizer
fork
gandhi
gaze
glowing
greens
greet
groundbreaking
hrs
hummus
inventions
kate
ladder
logistic
magazine
mandela
mat
maybe
measurable
metals
monuments
mustard
nigeria
notable
offensive
organ
paperwork
partners
peru
php
placing
png
portability
precautions
precious
preference
prevalent
processors
promptly
pronunciation
puts
rainwater
redundant
restricted
retain
ripe
roar
rolled
sequences
shake
shut
spotted
stillness
substitute
substring
susan
symbolic
synthetic
tablets
tears
throw
towels
travelers
triangles
troubleshooting
trustworthy
unequal
unified
unintended
utilized
versions
violent
virginia
virtually
weekly
wrap
##ana
##ans
##bed
##bly
##cent
##fully
##house
##li
##ner
##ress
##tter
##ude
10th
18th
68
87
abraham
absorption
adapting
aesthetic
allocate
artistic
astronauts
athlete
balloons
bamboo
bean
bits
blessed
bravely
briefly
buses
carpet
catastrophic
chasing
clicks
cnns
coherent
colours
communism
configure
constitutional
cout
crowded
cryptocurrencies
cylinder
delightful
detrimental
diagrams
documentation
draws
educating
emotionally
fades
harper
headed
headphones
homeschooling
idx
increment
infer
innocent
interference
journalism
judgement
lady
longing
mac
maple
mom
nike
notebook
ounce
pandas
phoenix
picasso
pinch
plain
pounding
preprocessing
progression
prospects
protects
protest
quotes
rainy
recession
reporting
republican
retailers
retrieval
risen
salty
shells
spicy
sushi
sweetness
switzerland
tacos
tap
teenager
teens
thrilled
thyme
traditions
troubleshoot
tweets
unlocking
unplugging
vectors
viewed
visualizations
washed
welfare
wiki
wished
writers
##bling
##ens
##ham
##iness
##men
##ok
##rus
##va
101
1789
63
accepting
advocating
affection
afterwards
amidst
anomaly
antagonist
apology
arguing
aroma
arrival
assumptions
bacterial
ban
belgium
beverage
blocking
bow
breakthrough
categorical
celestial
chamber
charges
cheer
chile
claws
compact
comprehend
conquer
const
conversions
curriculum
debris
deposit
dip
disappeared
disposable
dissatisfied
dressed
dressing
duplicate
echo
edited
educators
encouragement
enormous
entropy
et
exploitation
exponentially
fading
fifa
forgot
frames
furry
grape
hexadecimal
hierarchy
hunting
hydrated
hyperparameters
inefficient
inference
jelly
kennedy
las
lifelong
locally
logging
loops
lung
magazines
mayor
mentally
mike
modules
monkeys
motivating
multiplied
n1
nytimes
oceanic
olympic
opposing
outlet
peach
perfectly
personx
philosopher
pivot
portugal
pose
pretty
prosperity
reorganize
risky
s2
savory
senior
std
steep
sugary
swaying
synopsis
thrown
tide
toothpaste
toothpick
treacherous
ultra
unicorn
upload
val
viable
volatile
volcanoes
voyage
vulnerabilities
wildfires
wire
yard
zoom
##berg
##bing
##ff
##mp
##no
##ology
##ore
##ual
##wood
2y
41
abroad
aches
adjustable
amusement
appreciated
asthma
austria
authorities
backpack
beast
blankets
browned
bulk
butterflies
buzz
calculus
cans
carolina
caution
ceiling
channel
combustion
compass
conservative
council
crackers
crafts
crazy
darkest
delays
demanding
denmark
disagree
dramatically
earning
echoing
elon
encoding
existence
expanded
explicit
flipping
formats
freedoms
graceful
greener
hadn
headlines
heroes
humanitarian
ibm
inheritance
ireland
jake
johnson
legendary
legumes
loose
mad
mechanism
mia
mice
mirror
multiplying
normally
observing
outstanding
owl
owned
paradise
peacefully
peas
penguin
phishing
playground
poet
profiles
projected
pythagorean
raging
rainforests
ranking
recharge
recyclable
replacement
reps
requested
resist
resourceful
sara
sarcastic
segments
sensory
settled
smiles
smoothly
snowman
softly
strangers
strip
strongest
subjective
tank
textures
thermodynamics
thou
toe
toronto
toss
transitions
unconditional
unless
wanting
y2
##ius
##od
##ria
##sed
##ss
##tal
##ulation
1939
375
81
84
acquired
align
almonds
anagram
antibiotics
antonyms
avenue
backups
bat
behavioral
bitcoin
blessing
blooming
brakes
broader
burn
capita
cardboard
chaotic
characteristic
coefficient
colleague
colombia
companions
consent
contrasting
cookie
crafting
crossing
darwin
decorate
delhi
diamonds
discounted
encounter
executing
existed
facilities
fixing
fostering
freely
fulfilled
fundamentals
girls
glory
glue
gross
guinea
heavier
henry
icon
illustration
insecurity
intellectual
irrigation
journaling
kangaroo
mall
medication
meme
microwave
normalization
observer
outdated
persistent
pixel
poland
populated
port
praised
predefined
presidents
prism
publication
recurrent
repairs
replicate
resolved
sailing
saucepan
scanner
sends
shadow
sick
simulation
slavery
sofa
solitary
spin
starter
strives
sustainably
svm
swiftly
telescope
thorough
toaster
touching
trash
trunk
tuition
unfold
valleys
waking
wednesday
wisely
wit
witness
wondrous
##ard
##aries
##burg
##ee
##ify
##ina
##ines
##lo
##ney
##over
##rn
##uct
##water
180
2d
agreements
album
allocation
anagrams
animated
assessments
atop
avocados
backdrop
bangladesh
beacon
bustle
cakes
calculation
capitalization
captured
centimeters
chia
constructing
couch
courteous
credentials
criminals
cuban
culinary
dam
danced
dashboard
desperate
diagnostic
disappointment
discrete
disrupted
donating
drops
earliest
earthquake
ecstatic
enemy
energized
ethic
finite
firewalls
franklin
fullest
gestures
golf
gym
handmade
hospitality
injuries
introduces
jeff
jill
married
missile
mixing
mug
musician
mystical
nelson
nut
obtained
offline
oop
painter
pants
pays
personalities
politician
politicians
poses
possessive
premium
producer
professionally
pyramids
qualified
rarely
receiver
refused
reorder
rotation
royal
ruled
salaries
saturn
scaling
sci
sculpture
seas
sesame
severity
sexual
shell
silhouette
smells
spinning
sqrt
stance
striking
summit
tasked
throwing
timer
toes
touched
towering
trails
transferred
transmitted
upgrade
variance
vendors
vessels
viewer
volunteers
voters
winston
##ade
##ae
##box
##ess
##fies
##gb
##gy
##ha
##ians
##ient
##ino
##ishing
##lla
##nation
##res
##ten
##ties
##ured
1865
1964
2007
39
456
89
acceptable
adjusted
adobe
aesthetically
alternating
announcement
armed
assurance
awesome
balls
banner
bath
billing
biomass
candy
chapter
complementary
conditioning
consensus
considerable
convincing
coordinate
cough
crack
cruel
cybercrime
declare
descent
dew
dinosaur
donation
duplicates
eagerly
ear
earnings
electoral
exchanged
fellow
feta
filing
firefox
flies
gmail
grabbed
graduate
handled
headaches
healing
hollywood
humble
hurt
imposed
initially
innovate
intersection
invested
ipad
jackson
jog
joyous
labour
lamp
lily
litter
lock
logistics
magnesium
maker
manipulated
masterpiece
maze
mesmerizing
michigan
missed
neutrons
nooutput
officially
opposed
pakistan
pancakes
patches
periodically
photographs
podcasts
publish
removal
restoring
reveal
rna
rope
s20
sans
santa
schema
sciences
scoop
scripts
senses
sensor
shareholders
sneakers
somewhere
sq
stairs
symbolize
tails
toilets
toothbrush
toyota
transformer
tricks
tries
uniform
uranus
vegas
verifying
vice
volleyball
waited
whom
wondering
##atic
##aw
##dies
##ect
##ivity
##logical
##ome
##ster
##sts
##ua
##ulating
##uous
2010
2014
3000
78
83
848
88
a1
admired
adopting
aiding
aimed
appliance
approved
argentina
arrangement
beats
billions
bots
breathable
canadian
cherish
chickens
chords
chromosomes
climbed
complications
condiments
consecutive
coupons
cuts
darker
daunting
disagreement
disorders
divisor
dual
ducks
embarks
experimental
explorer
faulty
festivals
fetch
firmly
fiscal
foreground
fractions
fries
furious
gaps
giza
granulated
greased
happier
harvest
horses
hr
hug
hurricane
il
ill
immunity
imposing
instances
invalid
investigating
isaac
joined
kindly
leopard
lucky
meats
meta
mist
mushroom
napoleon
noises
np
ny
opens
outreach
ozone
pale
ph
phases
picking
portrait
premises
producers
promising
proofread
pseudocode
regularization
relating
relation
ruins
sahara
salesperson
sampling
scoring
shock
simulations
sixth
socialism
sourced
specialize
specifications
stated
stephen
stimulus
stomach
stops
struck
summaries
taylor
thriller
trains
transported
truck
ubiquitous
unchecked
unclear
unhappy
unsure
upbeat
usual
votes
wander
wilderness
##act
##ates
##ations
##book
##cks
##ents
##ill
##ined
##ji
##lar
##nda
##num
##ography
##om
##point
##ters
##tle
##top
##ula
##ult
##ver
02
08
1776
1960s
46
98
activation
acute
advertisements
affordability
alexander
amphibians
apollo
assigning
barack
bicycles
biography
bionic
boards
borders
bucket
cables
calculates
campfire
caulfield
centre
charger
chronological
cilantro
codes
commitments
confidential
contemporary
crimes
cryptographic
curse
decorated
desires
diesel
director
diversify
duck
dull
elaborate
endorphins
enforce
euro
fingers
flakes
flash
fonts
fragile
generator
genus
guilt
harassment
hermione
identical
imaginary
implied
indicated
inhabit
inherited
intensive
invasive
irregular
jacket
jefferson
joys
launches
lithium
livestock
lovers
machinery
markup
melodies
mention
menus
meter
mitigating
modes
muffin
negotiate
negotiations
neptune
novels
occurrences
operates
opponents
overly
oversight
oz
pennsylvania
permanent
persons
pervasive
pin
pointed
polygon
principal
prosperous
qatar
quantities
raced
radiant
reflected
relates
repellent
rephrase
responds
ring
rough
routines
ruby
ryan
sellers
seriously
shoreline
showcasing
snowflakes
socio
sounding
soundtrack
stays
stranded
substantial
suite
suits
sulfur
sway
symphony
taco
temporary
topping
turbine
utility
vaccinations
victims
voltage
wandered
waterproof
worn
y1
yours
zebra
##als
##ball
##ches
##ere
##ini
##ising
##lin
##lit
##logy
##map
##mo
##our
##oy
##pad
##ris
##town
##ub
##uck
##ures
##ved
##ways
1994
1999
375°f
4y
accommodations
actress
adaptability
airline
alan
alerts
altered
architectural
arr1
australian
autonomously
barcelona
beings
beverages
boats
boys
breakthroughs
captivated
charm
compatibility
crocodile
cursed
dc
debates
definitions
delegate
desktops
dialog
disparities
durability
duty
elated
employing
encounters
encrypt
encrypting
enterprise
entrepreneurship
eternity
evaporation
expecting
experimentation
facilitates
faucets
finland
fluid
fred
freezing
guarantee
guest
hackers
hardship
hop
horizontal
hospitals
info
infographic
intel
interval
intrigued
invisible
julius
laser
lava
lentils
makeup
mansion
misunderstandings
murder
muted
nausea
netherlands
newspapers
norms
nowhere
orbiting
overlooked
pablo
perched
pile
priorities
programmable
publicly
radiating
rated
rear
recursive
reflective
reformulate
refugees
regex
retina
retriever
revenge
runner
russian
satisfactory
seamless
shanghai
shots
skiing
spends
squats
stones
stopping
streamlined
strike
stuffed
sturdy
surprisingly
sweden
symbolizes
thai
tigers
touches
transmit
twenty
typos
uber
upfront
volumes
vpn
warms
watering
wavelength
wearable
witty
workouts
workspace
##123
##ace
##ber
##ced
##end
##ett
##iest
##ker
##lation
##mes
##ose
##outs
##play
##uel
##uff
##und
1980
1990s
66
7x
absence
absorbs
animations
applicants
approval
architectures
armstrong
arr2
attendance
awaits
azure
b2
bedrooms
blogs
burnout
charming
checked
cherry
chief
classmates
clauses
completes
compression
computation
cone
consultant
contagious
costume
coughing
coursera
credited
crunchy
defend
desirable
dickens
disney
disputes
dissatisfaction
distress
downloading
ecological
ecology
enhances
ensemble
equilateral
equilibrium
expectancy
extracurricular
financially
foam
forums
generalization
getaway
gettysburg
gloves
guides
hardships
headset
hinduism
hip
hopeful
hotels
ignore
ignored
illinois
impressed
inability
inspect
instructor
intimidating
inventor
itinerary
jennifer
jokes
jurassic
killed
kiss
labrador
lanes
leg
liberties
lighthouse
liters
livin
lottery
lyric
ma
mighty
mint
mitochondria
mitosis
monopoly
motherboard
nepal
newsletter
oled
optical
origins
paints
paprika
parameter
participle
pests
physiological
plots
positives
practiced
printf
racing
raises
readable
realm
referring
reinforce
reliant
researcher
rgb
rider
rom
sacrifice
scalable
scenic
shifted
shoppers
somewhat
spine
stanford
starring
strengthening
strife
subsequent
succeeded
suspect
syndrome
thee
thrones
tons
topped
trapping
treasures
trustworthiness
ui
understandable
unions
uplifting
vastly
veggie
venue
vintage
voldemort
walnuts
warnings
##air
##ars
##ave
##care
##cs
##gram
##ological
##op
##orn
##rable
##rage
##rated
##teen
##vy
07
1950
1960
1980s
1⁄4
2005
2012
2013
2022
62
73
82
900
accommodate
activated
administrator
alliance
alphabetically
alternatively
amazement
amy
andrew
ann
apocalyptic
architect
args
armor
asteroid
atticus
austen
autism
avg
avid
barking
bases
bats
beginners
beijing
belt
bitter
blanks
blended
blind
bone
boom
bored
boring
bowls
breeds
buds
camel
candles
canopy
clearer
clicking
commute
conditional
confidently
contamination
conventions
coping
creators
cry
cucumbers
deadly
deepest
deny
devoted
disposal
disruptions
eclipse
emit
enzymes
ernest
eruption
ethan
expansive
fade
fee
feline
fleeting
foundations
fragment
frank
freelance
geometry
governance
grabbing
halloween
harnessing
hashtags
helix
hemingway
hesitant
hockey
hood
hostile
hurry
instructors
interviewing
jason
jimmy
keras
kick
larry
lawn
lbs
leaks
legislative
lend
list2
loaf
locked
louder
makers
manages
marble
marriage
medicines
mentions
midwest
missions
modal
monitors
mrs
muscular
mythical
necklace
notch
occurrence
olives
payroll
peaches
persistence
persuade
plato
predicate
protagonists
proved
quotation
rabbits
rankings
rat
regulated
requirement
reviewed
rolls
senate
serif
shawshank
sheep
shield
soldiers
solo
spiders
steadily
stressful
superpower
sustain
synthesize
tab
thread
thrill
toll
toxins
tracing
traded
traps
triggers
tutorial
tutoring
unrest
unsafe
urge
veganism
weakened
weary
wore
workload
##ata
##can
##ders
##form
##gal
##hood
##lf
##mers
##ony
##ow
##pers
##rk
##rous
##row
##tions
##uit
##val
##vice
##ward
##wise
01
1914
1998
2006
2011
51
59
8gb
accent
accents
acidic
administrators
adverse
ah
airpods
alertness
allied
amphibian
anonymous
apa
argumentative
authorized
aws
baroque
begun
bezos
bio
blogging
bouquet
bridges
brightness
buzzing
cardio
caterpillar
cathedral
chord
churchill
coated
collects
coloring
compiled
coordinating
costa
crispy
cultivate
dating
dave
desc
deserted
deserve
determiner
dire
discriminant
distribute
dive
divides
drill
encompasses
endgame
exchanging
exclamatory
exhibit
f1
fame
fibers
financing
flock
floors
footer
fort
frequencies
fulfillment
fungi
glowed
gradual
grasp
hall
handwriting
handwritten
hedgehog
helmet
hints
homelessness
hydroelectric
imaginative
interacts
internship
irrelevant
jigsaw
jingle
kiwi
landed
leveraged
liberal
loaded
lowering
lyrical
marry
mine
module
moons
mozilla
mutation
nestled
noisy
obligations
originally
overjoyed
paradigm
parenting
partnership
passions
pastry
pathway
pause
peacefulness
peeled
penguins
petrol
picturesque
plumbing
ports
pretend
prolonged
proprietary
q1
quizzes
rachel
raspberry
rational
recruiting
reign
relentless
residential
retrieved
rides
salads
satisfying
scheduled
scream
shooting
signing
sisters
spacex
spatial
spells
straightforward
sublime
supplement
systematic
tensorflow
ties
token
tokens
tourists
transferring
typed
urbanization
utah
vastness
violation
volatility
weekends
zuckerberg
°c
##000
##11
##19
##20
##ah
##ai
##ale
##bound
##ching
##em
##eous
##ets
##fs
##gling
##hu
##ice
##ight
##ished
##law
##lia
##lies
##mate
##nium
##oid
##place
##sy
##tors
##wear
00pm
05
17th
1997
280
57
58
71
76
79
accelerate
acted
algebraic
allocated
ample
analysts
annually
aristotle
aurora
bald
bands
barbecue
bin
biometric
bookshelf
breaths
broke
cabinet
cascading
chooses
christopher
clutter
coastline
comprehension
contests
contextual
contractor
contributor
cooled
crept
crickets
curves
cyberattacks
dallas
damaged
daniel
declining
depict
diagnosing
diego
dignity
diligently
district
drones
drums
edible
edition
em
emptiness
enchanting
ethereal
everybody
evokes
extent
faithful
fiercely
finishing
firms
formidable
frankenstein
freeze
frisbee
galleries
gatherings
gauge
gazing
glimpse
graduation
guarantees
h2o
hanging
hearted
heaven
highs
highway
hopped
howling
hulu
illustrating
importantly
indeed
inertia
inflammatory
influenza
inseparable
inspirational
instability
jay
jean
jenny
joker
kite
laying
lb
learner
legally
lets
lining
linkedin
literal
mastery
meadows
medieval
midst
moist
monet
mortgage
multinational
negotiating
nth
onboarding
orientation
patch
pointing
possessions
privilege
professions
proficiency
progresses
quieter
rains
referral
refresh
reminding
renting
reproductive
restrict
revenues
rivalry
rotate
safari
santiago
scanning
scatter
screens
secured
securing
sees
shaking
shaping
sharks
ships
shortages
shoulders
snakes
soldier
sparkle
sparkled
spreads
startled
stretched
strikes
supervisor
suppliers
sustained
sweeping
talents
tendency
texting
therapist
thumb
towel
towers
triggered
tuned
twilight
unbeatable
uncle
unlimited
unreliable
urls
usable
usb
varies
varieties
verification
vertices
vi
wardrobe
watermelon
webinar
wheels
williams
##ads
##ched
##den
##ends
##hed
##iation
##ils
##ime
##index
##ining
##mine
##oe
##port
##pt
##sm
##stic
##table
##ug
##ulate
##vable
125
1962
2001
2004
86
93
97
acme
acrostic
adorned
advantageous
affectionate
agencies
alarms
altering
anaerobic
asks
attraction
avoided
blueberry
bubbly
bullying
carnival
cautious
certainly
challenged
champion
cheating
chickpeas
chris
cigarettes
cleaned
closet
colder
comprised
credits
crown
cucumber
cumulus
cv
dazzling
debit
denied
depletion
desperately
destructive
dim
discarded
dispute
diversifying
downs
downturn
dwarf
electron
elimination
empower
enzyme
eve
evergreen
except
exterior
extracted
fairly
familiarity
faraway
farms
fatal
filtered
finch
finger
flags
flaws
flora
founding
fountain
g7
generosity
genetics
georgia
gesture
glee
glorious
goat
gracefully
granola
hats
haunted
hawk
herb
heritage
hummingbirds
hypertext
identifies
imgur
impactful
incomes
incomplete
infinity
insufficient
isprime
jam
journeyed
judgment
julia
kitten
leafy
legitimate
leisurely
licenses
lifestyles
linguistics
listing
longevity
lunar
lurking
luxembourg
madison
maine
mandarin
marginalized
markers
mascot
migrate
moderation
ms
myth
nocturnal
nostalgia
notion
numeric
ornithology
outlined
outsourcing
overcame
overnight
oxford
parchment
plains
plug
polluting
pouring
prestigious
repeatedly
responded
reused
rica
ricotta
rid
roast
rooted
saas
sail
sandy
sauces
saudi
savor
separation
simulated
smoother
socrates
solitude
spa
spirits
steal
stimulating
storyline
subordinate
subtracting
surviving
swirling
tariffs
terrifying
territories
threw
timing
tolkien
tornado
tournament
trapezoid
tucked
typing
uncomfortable
underground
utilization
vulnerability
wand
warrior
webinars
whispers
workshops
wound
zealand
##12
##15
##45
##ab
##ac
##ass
##bes
##dog
##els
##gen
##gue
##ith
##lessness
##mi
##mic
##minating
##most
##nic
##rey
##rit
##tics
##tte
##ul
##urs
1234
12mp
1861
1963
77
accelerating
adversarial
aiming
algebra
ambitions
anns
arabia
arbitrary
arpanet
arrangements
attire
authentic
baker
bathrooms
beam
bins
blissful
blooded
blow
bonus
brushstrokes
burrito
careers
cauliflower
charlotte
chores
collaborations
collapse
commuting
competitor
concluded
confirmation
confirmed
continental
corresponds
counterparts
county
couplet
creator
credible
crow
damages
default
defending
defines
descended
diligent
dominant
doubts
downtown
dying
efficacy
empowered
enforcing
equals
es
examination
exit
explained
explosion
exports
fabrics
fault
firearm
florence
folder
friendships
gadgets
gallons
geese
glows
gpu
gram
granger
guacamole
guiding
hamburger
harbor
helpless
hired
histogram
hive
horns
href
hub
impose
inexpensive
influx
injured
ink
ins
institution
instrumental
interfere
interventions
intuition
inverse
ipv4
jellyfish
jenna
jordan
joseph
js
justin
kayaking
lakers
latitude
lavender
liability
lid
lifting
livelihoods
logs
longitude
louvre
lowered
macbeth
makeshift
mandatory
mankind
melodic
metabolic
mitigation
motivations
mri
mysql
nuances
nurture
obvious
offspring
ok
operators
organelles
outro
pad
penalties
pentagon
perceived
pixels
practitioners
praise
predator
priced
prioritizing
prison
proactively
q2
qubits
queue
raspberries
recruitment
refining
refrain
riders
rigid
rinse
roaring
rounds
ruling
scarce
scarcity
seagulls
seasonings
seekers
sequential
sex
shiny
shipment
shipped
shocked
shorten
sided
silently
siri
slight
slim
socially
splitting
stain
storyboard
strands
styling
sunglasses
supernatural
surprising
surrender
suspension
sustaining
tac
taxi
terminal
theoretical
thinker
thirst
throws
tornadoes
trajectory
transfers
translates
truths
ul
uncovered
understands
unexpectedly
unite
unsatisfied
verified
wears
winters
withdrawal
wright
##78
##arian
##ces
##chy
##das
##date
##di
##etic
##gated
##gi
##ick
##ign
##iling
##inate
##ington
##kg
##len
##lock
##lot
##meter
##ooks
##orous
##ote
##q
##ral
##ti
##tory
##uation
##used
##ux
##ying
##zzle
03
1500
1800s
1965
1991
2030
3⁄4
53
acoustic
aerosols
amelia
amendments
americas
anew
ants
apache
apparel
ash
asleep
astonished
athens
banning
bbc
bent
billy
birdsong
boundary
brains
branding
breakdown
brooklyn
burns
buyer
cafes
cargo
carpool
certifications
charities
chic
chloride
chocolates
clarify
cliff
cloak
cocktail
cohesive
collaborating
communicated
complexities
composite
configuration
congratulations
considers
consult
consulting
conveniently
convention
copper
corleone
corpus
crashed
creatively
csv
ct
cubic
cuisines
cunning
dakota
delayed
desolate
detailing
digitally
discourse
diving
docs
doctype
documentary
documented
drank
dreary
dutch
earns
eggplant
egyptian
embarrassed
enlightenment
equator
estimates
ethiopia
etiquette
examined
exhilarating
expanse
expense
failures
fashionable
fatty
favors
feasible
feeds
fingerprint
fridge
funded
futuristic
giraffes
github
glistening
gorgeous
gotta
governing
greetings
grooming
gui
harvesting
hawks
hd
headings
heal
heap
hesitation
histories
hung
hypotheses
iceland
icy
idiomatic
implying
impressionist
inception
individualized
inequalities
infographics
intestine
introductory
investigation
iostream
iphones
karen
kid
lacking
les
lockdowns
mahatma
manhattan
margaret
marking
mash
michelangelo
mimic
modifications
monarch
montana
mortar
muffins
nancy
nasdaq
nectar
neutrality
nick
nightlife
olympics
orbits
organisation
os
oval
packaged
painful
parentheses
permits
personally
philadelphia
photographer
pilot
pollen
positivity
possibly
primes
prizes
programmers
prompting
proposition
quietly
rainbows
reap
rebecca
recurring
reformat
reluctantly
reminded
renewal
renewed
representations
requesting
respondents
restate
restoration
retrieving
ripple
rivals
robin
roosevelt
salvador
samantha
scooter
scramble
semester
sensation
showerheads
simplest
simplified
sincere
sinister
skip
skirt
slip
spacious
spans
sparked
sparkles
spatula
spill
src
stealing
stratus
subarray
succinct
sue
summers
supposed
surfing
swam
swept
symbolism
tackling
tcp
tempo
terrestrial
thirdly
tic
till
tolerant
tongue
tortoise
trailer
twentieth
unchanged
unconscious
unlocked
unveiled
vacations
validity
value1
violations
violet
vocal
voter
wanna
watches
whispered
whistle
worrying
worsen
yeast
youngest
##01
##60
##67
##70
##93
##aging
##ances
##bo
##bus
##case
##ci
##city
##ctor
##cus
##ek
##fish
##he
##hos
##ica
##idae
##iled
##its
##lights
##matic
##off
##og
##oi
##oo
##rine
##rust
##sel
##sphere
##tring
##uce
##uding
##ulous
##vote
##ya
029
04
110
128
1775
1942
1955
2000s
3x3
7890
7th
92
96
acclaimed
accompany
acquiring
adaptations
adept
advisor
advocates
amino
anatomy
andy
antibiotic
apis
arrow
assume
atlanta
attachments
attribute
augmentation
aunt
balancing
bass
bce
beak
beating
beatles
bend
beside
blazing
blocked
brackets
breach
bride
buchanan
canned
carol
carved
catches
celebrates
chambers
chi
chlorine
cipher
clay
closure
clubs
collections
colosseum
concerning
concludes
congo
conversely
corrected
correction
cos
cosmos
crumble
delivers
dependency
deprivation
discourage
discouraged
diversification
dove
drag
drained
dropbox
eats
ed
edu
emerge
empowerment
endeavor
endeavors
espresso
ethnic
euros
exchanges
extinct
failing
falcon
fare
feared
fertility
fiery
fifty
flowering
flute
footprints
genuine
ghost
grandeur
grandfather
gravitation
handles
hemisphere
herbivores
heuristic
historically
holder
hollow
hungary
hypothesize
illustrations
incorrectly
indices
inevitable
influencing
init
intention
jamaica
jessica
journeys
judicial
keen
kevin
lego
lemons
leopards
lightbulbs
linking
lows
magnetism
malala
mangoes
marveling
mentors
miami
milestone
mirrors
mississippi
monetize
motors
multitude
mutually
necessities
nina
nino
nonverbal
northwest
nosql
nurses
omelet
outbreak
overcrowding
oxide
packing
pancake
panic
pans
pastries
pearl
pears
perfection
perpendicular
pest
pesto
pigeon
pillows
pins
pipe
pirate
playlist
plunge
poaching
pole
pollination
preservation
preventative
privileged
proficient
promoted
proportion
proposes
pup
rail
ransomware
razor
realism
recordings
reds
refined
reforestation
reject
replication
reservation
restricting
retreat
revealing
reviewing
rod
rollercoaster
ron
rosemary
runny
sage
scout
scrub
settle
settlement
sheer
shrubs
shuffled
signaling
signify
simplicity
sin
slang
slowing
sly
somebody
splash
stanza
stations
stew
strides
struggled
substitution
subtraction
sudan
susceptible
swapped
swapping
sydney
symptom
tear
teen
territory
testament
textual
thanking
thirty
threaten
throne
timelines
tirelessly
tissue
tradition
tribes
turmeric
twain
twisted
unaware
unbiased
utc
ux
vancouver
veggies
velvet
violets
viral
wandering
wasted
wedges
widening
wilson
workshop
worried
##50
##92
##aking
##art
##ceptive
##ew
##fall
##fter
##hal
##ience
##ifies
##inating
##ination
##ire
##ix
##lic
##life
##light
##lle
##lysis
##makers
##minated
##mination
##ndi
##nes
##nge
##nity
##nting
##one
##oon
##points
##racy
##rates
##right
##room
##tan
##tary
##tched
##tra
##ugh
##ught
##ui
##uing
##upe
##vation
##vi
##wing
##zy
09
126
1783
1941
1975
1993
2003
450
47
700
abortion
accidentally
accordance
accumulation
adequately
afloat
aided
alleviate
alongside
altitudes
analyses
ancestor
anecdote
angela
angular
anne
apparent
appetite
aquarium
arab
arduous
asparagus
aspiring
assigns
assumes
astronomical
attracted
auditory
balsamic
barely
beforehand
beginnings
behave
ben
berkeley
binding
boasts
breeding
brew
brewing
broaden
brutality
bullet
burst
bursts
calendars
cancers
capitalize
carnivores
census
ceramic
charlie
cheers
chloroplasts
climbers
cms
col
communicates
concentrate
condensation
confederate
conferences
conflicting
connotation
contest
converse
conveyed
cooker
cord
coriander
crm
crumbs
crushed
deleting
demanded
dependable
destroy
distracting
donations
elementary
elevator
elite
enigmatic
eruptions
ethernet
eventual
exhaustion
expiration
expressive
faded
feasibility
feeding
fireworks
fitting
flesh
fluctuations
fluids
flutter
fortunate
frosting
fusion
gallon
gems
generalize
generic
globally
gotten
grading
granting
greenery
grip
grouping
guard
guardian
heartfelt
hitting
hogwarts
hum
idioms
illusion
img
indigenous
ironic
joyfully
ketchup
kong
lane
leo
lever
lightbulb
liner
listened
lover
malcolm
mantle
manufactured
mastering
mentorship
meowed
merchant
mm
modular
mumbai
neil
nickname
oasis
obtuse
openai
openly
opposition
oppression
ops
overuse
pandemics
pc
perhaps
persona
phrasing
pioneering
placeholder
planes
plank
poorer
precisely
predicts
pressed
probabilistic
procedural
proceed
professionalism
prototyping
pulling
randint
rash
rebellion
refreshed
refuge
regime
reminds
rep
researched
resonates
respecting
rnns
roared
roasting
rob
robbery
rockets
rotating
rub
rustled
sacred
sandals
sanitation
sculptures
seize
separates
servings
shortly
silly
situated
slender
snowy
specializing
sporting
stakes
starters
string1
stringent
strips
stylized
sums
surgical
syntactic
syria
tangy
tasting
taxonomy
tempeh
tissues
toasted
tobacco
tolerance
torch
torn
tortillas
tragic
troops
tube
unlabeled
unpleasant
unstoppable
unwanted
upward
validated
validating
value2
vampire
ventilation
victim
victorian
waning
warmly
wastage
watson
wavelengths
weaving
weren
wetlands
whipped
wing
wires
withstand
wolves
wool
worthwhile
yangtze
yo
##30
##32
##56
##86
##ables
##ane
##ap
##ased
##ast
##ban
##bia
##boards
##cal
##chart
##dge
##eding
##ep
##essed
##fying
##gent
##gging
##gus
##iant
##ility
##im
##isation
##ises
##keeping
##lant
##liness
##location
##lon
##low
##lum
##mous
##nut
##ode
##oli
##ook
##oth
##ots
##pass
##pic
##ple
##rative
##rest
##rets
##rity
##rry
##ser
##side
##so
##tation
##thy
##ulator
##ule
##ules
##ums
##ups
##utable
##watch
##weight
00am
10am
145
175
1917
1929
1972
2nd
5y
6th
8th
accelerated
accommodation
accumulate
acidity
adele
admirable
aggression
agrees
airbnb
alarming
alienation
alley
alzheimer
amber
analog
anniversary
anthem
apt
ascii
associate
assumption
asynchronous
authorization
awaited
awake
barn
bench
blaze
blazer
bonjour
borrowed
bowling
breasts
brewed
bronte
burgers
businessman
cairo
casts
celebrities
chapel
charades
cherries
churn
cider
cinema
citizenship
clip
clocks
cloning
coaching
cognition
collaboratively
collins
colonial
comedic
commonplace
communicator
comply
concentrations
conjunctions
consequently
contraction
controller
cools
corp
corrections
counseling
crab
crystals
cub
cupcakes
curl
curr
dad
dan
dealt
debts
declined
defective
defensive
deposits
devotion
dinosaurs
directory
discard
disciplines
discomfort
distorted
domains
donkey
dotted
duality
dum
dylan
economically
edison
egyptians
eligible
eliza
employs
encountering
endure
esta
excitedly
exoplanet
expenditure
exquisite
faucet
favorable
fights
fines
fission
flames
flashlights
flood
footage
foxes
genie
gerund
gloomy
gluten
gm
goose
gov
guns
hacker
hallway
hearty
heavens
heroic
homophones
hummingbird
hunter
hydro
ian
ideals
imperfect
implements
implicit
ineffective
intangible
intentions
intervals
introverted
ivory
jacob
jubilant
justify
kangaroos
kilometer
knee
layered
leftovers
lesser
lingering
lucy
manufacturer
manufacturers
markings
marveled
masses
mathematician
membership
mg
microphone
minority
mop
morocco
motto
nap
nevada
nlu
nvidia
octopus
operated
oscar
ox
packs
palm
parliamentary
pdf
pens
permanently
portions
portrayed
posted
prescribed
pressures
printers
profitability
prominently
psychotherapy
q3
questioning
quo
radar
radioactivity
reactor
recreation
redundancy
referrals
refusing
rendering
replied
repository
responsiveness
restful
restored
resumes
reunited
rigorous
rode
roi
routers
routing
rustic
ruthless
saint
salsa
satellites
scams
scored
seal
seasoning
servant
shakespearean
shoot
sitcom
slept
slots
snail
snorkeling
solves
souls
spiral
stems
straw
stresses
strokes
superposition
swirls
syllable
systemic
tailed
teachings
tending
thicker
thunderstorm
tied
tilt
timestamp
tin
tires
touchscreen
tracked
trapped
travelled
triumph
tsunami
tuna
turbulent
twenties
unemployed
unparalleled
unsustainable
upset
va
vanished
virgin
visitor
waiter
wallets
weakness
weasley
weighing
wicked
wifi
wisconsin
wondered
workplaces
wyoming
zombie
##77
##90
##95
##98
##99
##ach
##aker
##atics
##bel
##bled
##books
##bury
##cking
##dae
##een
##eer
##ell
##elling
##eral
##ery
##front
##gate
##ght
##gie
##gio
##han
##her
##ict
##iculous
##inal
##ional
##ited
##ition
##km
##lan
##lating
##lative
##lc
##lity
##mia
##more
##nal
##nical
##ographic
##onic
##oping
##ored
##ory
##pes
##phone
##press
##ques
##raph
##rical
##rix
##roll
##rophe
##rth
##rum
##sia
##tives
##uction
##ull
##uted
##version
##wed
##za
132
1799
1812
1953
1961
1970s
1971
1976
1995
1996
1st
5000
61
69
91
aback
abide
abused
ace
activism
admiring
adrenaline
advent
advise
affirmative
aftermath
alabama
alchemist
algae
angel
announces
anticipated
appearing
articulate
athletic
attendees
await
balances
bask
beaten
beautifully
bedtime
belonged
benjamin
bing
boarding
bolded
bookstore
boosting
broadway
broom
cactus
campus
cancelled
capacitor
cape
capitals
caramel
carb
carl
castles
cheapest
cheesecake
chirped
chlorophyll
chop
citation
cliffs
clown
collage
collision
comparisons
compensation
con
conditioner
confidentiality
configurations
conjugation
conserved
contaminated
corrupt
cosmic
couples
crawl
crunches
cultivating
cure
currencies
dare
dash
decorative
democracies
derive
dirty
discrepancies
disruptive
driverless
dumplings
dusty
economical
ecuador
eh
eisenhower
embarked
encapsulation
enclosed
enduring
enforced
entitled
entries
evenings
exclamation
fable
fallen
females
fermentation
finalize
finely
fisherman
floated
flourished
fool
forecasts
forestry
formulating
framed
freshness
gateway
geopolitical
giveaways
gleaming
glimmer
gmos
governmental
grader
graham
grievances
gripping
guilty
halfway
ham
hare
harms
herbivore
hobbit
homeowners
hong
hook
hydration
icons
identities
ideologies
imported
improper
incidents
inclined
induced
injection
intercept
investigates
iran
issued
jacks
jargon
jars
jealous
jewels
joints
jungles
khan
knack
knights
koalas
lacked
latency
lawsuit
legislature
lenses
lgbtq
liabilities
linguistic
lizard
loads
lug
lullaby
madagascar
maintains
matrices
maximizing
mcdonald
meditate
microservices
missouri
modelling
monument
motivates
negatives
neighborhoods
nerve
nickel
nightmare
nonlinear
noted
notices
oat
obey
offense
olleh
opera
ord
oregon
ovens
packets
pads
panama
parental
passenger
passport
paulo
pencils
permissions
persevere
photoshop
photovoltaic
pipes
pitfalls
planted
plt
pluto
pools
poorly
possesses
preserves
probably
proofreading
prospect
proudly
pruning
publishing
pudding
puppies
questionnaire
racecar
rebuild
recommender
regarded
relieve
repayment
repercussions
reproduction
res
resembles
revolves
rio
rituals
satisfy
savannah
seashells
seats
seller
seventh
severely
shed
shelley
shepherd
shortness
shrouded
sierra
sift
silk
sinking
smoothies
snapchat
soaked
socialize
softer
solver
specialist
specialty
speeches
steven
sticking
strategically
strengthens
string2
stubborn
successive
suis
superheroes
suspenseful
tan
taxonomic
telemedicine
thrift
tortilla
trauma
tribe
trousers
trusting
tumultuous
ultraviolet
uniquely
unsplash
untold
vatican
versa
versailles
vicki
voted
vowed
walmart
weaker
weapon
wizarding
workflows
xbox
xml
yearly
yosemite
##25
##33
##64
##81
##acing
##afe
##ag
##aire
##ang
##bute
##cans
##cast
##cc
##cedent
##cl
##coon
##des
##eld
##ency
##ert
##eted
##ez
##fit
##gation
##hand
##hen
##hing
##hz
##iance
##iary
##ibility
##idation
##int
##ison
##ita
##iting
##itude
##ively
##izer
##lateral
##lessly
##lib
##lings
##logist
##mit
##mon
##netic
##nies
##non
##nos
##nx
##of
##ori
##ov
##part
##pical
##pire
##polis
##ption
##rant
##rator
##reak
##ree
##ried
##rified
##rily
##rp
##string
##tent
##tered
##thest
##tin
##tis
##tone
##tree
##tt
##tting
##uan
##ung
##vant
##vin
##volent
##writer
##writing
06
111
168
270
3x2
6x
70s
a4
abnormal
absorbing
activist
activists
adaptable
adjacent
adulthood
adventurer
aggregate
ailments
airports
alcoholic
aligned
alliances
aloud
antarctic
antennae
appetizers
aspirations
aspirin
assembling
atm
attendant
attracting
auxiliary
awaiting
awoke
backing
backlinks
batch
bayesian
beaming
belongings
bi
blueprint
bmi
bolivia
bolt
borne
boundless
bounds
brad
bubbles
caching
camaraderie
camouflage
canal
candle
capped
carnivore
carnivorous
categorization
categorizing
centric
certification
certified
champions
chatting
cheap
chilly
christianity
cirrus
cliche
climatechange
cobblestone
coefficients
colleges
committee
commons
communist
competitions
computations
concentrating
conclude
consumes
contemplation
cooperate
cooperative
coworkers
critique
crowdfunding
curation
curled
daylight
decorating
deduction
deepen
del
denver
dependencies
depicted
diagonal
diary
directors
disability
disabled
disadvantaged
disconnect
dishwasher
distracted
diversified
dot
dots
downloads
drew
emerald
empathize
empirical
energizing
enjoyment
envy
ergonomic
ethereum
executes
expectation
facilitating
familiarize
feather
fictitious
firewood
flagship
forcing
fueled
gadget
galapagos
gamification
gem
gen
geological
glittering
graduates
graduating
grassy
guaranteed
handed
hardly
harmonious
heels
heightened
hiding
hiit
honda
hoped
hotter
hottest
ignite
immersion
imperial
imperialism
impulse
indicative
inquire
insertion
intact
intermediary
intertwined
intrinsic
introvert
inventing
inversely
ion
jaguar
jan
jersey
jet
junior
karaoke
karma
kim
knives
lasts
latter
lender
leverages
limitation
lingers
liquids
literate
lockdown
lunges
madam
magma
magnet
males
marinara
mayonnaise
melancholic
mentoring
messenger
metaphase
milky
miller
missiles
monaco
monologue
moods
motives
multiples
musicians
mustang
mythology
n3
navigates
necessity
neon
newsletters
num3
nursery
nurturing
o2
officers
opting
origami
outweigh
panther
particulate
pastel
pawn
paws
peeking
perceive
perceptron
persists
philip
piercing
piper
playstation
poles
portrays
possession
poultry
preceding
presidency
privileges
provision
pumps
purples
quaint
quartz
quicksort
radiates
radical
randomness
ratified
rb
reactive
realizing
reclaim
repurpose
reservations
resort
restart
revised
ringing
rmse
roadmap
roam
rotates
runoff
rushed
sake
salted
salutation
sanctions
sausage
scalar
scarf
scikit
sealed
sedan
seuss
shame
shouldn
shouted
showcases
singapore
slippery
sms
snowboarding
socialization
soups
sparrow
speeding
spills
splendid
sponges
sprinted
squash
ssl
stepping
stratosphere
suburban
swiss
symbolizing
symmetrical
tableau
tabs
tagging
taller
technician
tectonic
temples
temporal
testimonials
theatre
thermostats
threatens
threshold
toilet
traction
trafficking
transcription
transformative
traumatic
tray
troll
troubled
tsp
typography
undeniable
unsorted
unwavering
veins
vibrations
viewpoint
vomiting
warned
warranty
waterloo
waxing
weighs
whimsical
winfrey
witnessed
wrinkles
yellows
yousafzai
zimbabwe
##49
##59
##97
##aas
##aid
##amas
##aneous
##ators
##bank
##bara
##bic
##bon
##c2
##cape
##car
##cate
##cation
##count
##cted
##cting
##data
##dian
##dled
##ductive
##ei
##ella
##ello
##emic
##era
##ese
##fl
##ford
##forms
##fting
##fy
##holder
##hr
##ien
##ii
##illa
##iosis
##ites
##izations
##ken
##lay
##lish
##living
##llo
##lls
##log
##lves
##mail
##mark
##mation
##nate
##ndent
##nder
##nding
##nia
##nk
##note
##offs
##oked
##olate
##old
##ole
##onia
##ort
##pose
##pp
##pressed
##rade
##ratic
##rge
##ridge
##rm
##sen
##shop
##stated
##teenth
##tery
##tick
##tters
##ture
##uad
##uate
##uis
##una
##uses
##utical
##uting
##uts
##uy
##vious
##volution
##vs
##walk
##worthy
##yan
##zz
12th
1889
1918
192
1951
1957
1968
1977
256
365
370
425
74
8x
90s
911
aapl
activate
adverbial
aerial
affluent
aloe
aloof
ancestors
anderson
angled
anytown
appointed
aren
assassination
assuming
authoritarian
automobiles
awkward
banned
beaver
beyonce
biofuels
biometrics
bistro
bolts
borrower
bouncing
brake
bricks
brightening
brink
budgets
buffalo
bull
buried
cacti
capitol
cares
cascade
catering
cdc
centauri
chefs
chilled
christian
chronicles
cinderella
cinematic
classics
cleanup
cm3
coded
cola
colonists
columbus
commission
commuters
compromising
concentrated
conductor
configuring
connecticut
constellations
cornerstone
costumes
coursework
courts
courtyard
craters
crawler
cubed
curated
damp
datetime
declares
decompose
deeds
deferred
departure
deserves
desks
devastated
differs
disagreements
dispose
distributing
dividend
dizziness
doll
dreamy
drifting
drills
drip
earrings
elasticity
elevated
empires
encode
endindex
endlessly
energies
enigma
enriching
entertained
equip
eraser
essays
establishes
ethically
ex
exacerbating
experimenting
expressionism
extending
famine
fauna
fearful
filtration
finals
fireflies
flashcards
flee
foolish
footsteps
forbidden
frac
francis
gameplay
garnish
gazed
geforce
genius
gibbous
glance
glimmering
gothic
grandma
grasses
greeted
guarded
guatemala
guessing
gulf
gust
hacking
harris
havoc
hikes
hilarious
hippopotamus
horizons
hosts
howled
ibuprofen
illuminates
impressionism
inconsistencies
indexing
indigo
infrared
initiate
inquisitive
inserting
insightful
integrating
intriguing
intrusion
invades
iris
irreversible
islam
jackets
jagged
jesus
judged
junk
katniss
kidney
killing
labeling
labelled
laura
leaning
leapt
legends
lemonade
lexical
lighthearted
limitless
listeners
luminous
magnets
malfunction
marijuana
marshmallows
mattress
mature
maturity
meditating
mermaid
metallic
mit
modeled
modem
molly
mongodb
monsters
mountainous
na
nationalism
nazi
nerves
nets
nevertheless
nietzsche
norm
notify
noting
occasions
ohio
ominous
oral
organizes
ottawa
patrick
paw
penne
perpetual
physicist
physiology
pickles
pinks
pitched
planner
pneumonia
pointers
polluted
positioning
postings
postman
predictable
prevail
probable
proceeds
projections
proportions
props
prospective
protections
psychologist
pump
purr
races
rack
realization
rearranged
reasonably
reconstruct
recursion
reddish
reformation
registered
registering
rejected
remembering
replenished
reserved
retaining
ridge
ripples
rival
rugby
rugged
rumors
rustle
sadly
sammy
segregation
seine
seismic
separately
setbacks
shook
shortage
shortcuts
shortening
shorts
si
sigh
sightseeing
silicon
simba
simplifies
skating
slack
sleeves
slogans
socioeconomic
sociology
sounded
spite
sponsored
sprinkles
sprouts
ssd
stainless
staring
startindex
stdio
steering
strengthened
substituting
sudoku
suffix
suicide
surgeries
surreal
suspects
suzanne
swallow
sweater
swing
synapses
taiwan
tapestry
teammates
teapot
temporarily
tenacious
tennessee
thirteen
thriving
thrust
tidal
tightly
tony
tooth
totally
tours
transitive
trigger
trilogy
trim
tundra
turquoise
typeface
unforeseen
unrelated
untouched
unused
utmost
vaccinated
venezuela
vigorous
villages
vinaigrette
visionary
visualizing
vowel
warehouse
warfare
warriors
wasting
watered
weighted
whiteboard
willed
wordsworth
worms
xxx
yards
yen
zebras
##13
##34
##42
##75
##91
##acy
##ail
##ait
##ake
##alis
##alt
##ano
##arity
##az
##backs
##base
##bb
##born
##chi
##cked
##cript
##cution
##diction
##dles
##eb
##ergy
##erine
##eting
##flower
##fts
##gize
##green
##hale
##hes
##hi
##hold
##ifying
##igh
##illing
##inished
##initive
##ink
##iss
##itive
##lam
##lane
##late
##lawed
##learning
##lm
##lted
##lu
##minal
##mium
##mond
##ntino
##oji
##ost
##otic
##ove
##pear
##perated
##pered
##pi
##plus
##product
##proof
##quity
##ran
##raphy
##ratory
##rave
##ray
##rged
##rging
##rite
##shops
##spoken
##take
##tel
##tering
##tible
##tips
##tling
##tribution
##une
##unt
##ura
##usive
##vel
##vers
##via
##vour
##wa
##wig
##words
1920
1930s
1940
1992
2050
216
360
400°f
401
abnormalities
abolished
accepts
adhesive
adidas
advertised
affairs
afghanistan
alfred
allergies
alligator
alphanumeric
apex
arranging
arrives
assassinated
assembled
assertive
assisting
associations
assure
asteroids
astonishing
astronomer
astute
audit
authenticity
backpropagation
bare
bbq
beaks
beige
bells
bengal
berry
bible
bikes
biographical
biome
blanketed
bleak
blessings
blurred
bombs
bonaparte
boutique
buffer
bureau
cabbage
calmness
captivity
carefree
carpenter
cbt
cease
censorship
ceremonies
certificate
certificates
charter
checkups
cheered
cheeses
cherished
chills
circuits
circus
citations
clap
clash
clips
clockwise
closes
collisions
colon
colonization
commodities
composer
compressed
consonants
convection
correcting
craftsmanship
cries
crises
critics
crocky
crows
cumulative
curb
curtains
cutlery
daisies
dared
davis
deductions
demo
demonstration
denial
denominator
densely
depleted
destroying
detergent
deterrent
diagram
dialogues
diarrhea
differentiation
dig
digest
dimensionality
diner
diplomacy
disposing
dissolved
dives
dns
doom
douglas
drake
dresses
dropping
dumbledore
dunes
dusk
dynamically
ebay
eclipses
empathetic
emphasized
empowering
entertain
envelope
equatorial
exaggeration
exclusion
exemplary
exhibition
extensively
eyed
facility
fathers
favored
fearsome
feat
finishes
fleming
floral
fluency
flyer
foil
forbes
foreboding
formatted
forrest
fosters
frances
franchise
funk
gears
gif
gliding
goddesses
goggles
gpa
gpt3
grapefruit
grin
grounded
gump
hail
halves
hampshire
hamsters
handsome
harnesses
hawking
hexagon
hippo
hires
holistic
homo
homophone
honors
hopeless
hover
idaho
ideology
idyllic
immensely
imports
inaccessible
inanimate
incandescent
incentivizing
incremental
indexes
indiana
industrialization
inflated
inherent
instill
intimate
invertebrates
iraq
istanbul
ixlib
jaws
jedi
julie
kenya
kits
korean
lace
landslides
lengthy
liberated
lilies
limestone
liquidity
littering
logos
looping
luke
lurked
malnutrition
mammalia
manifest
mantis
mario
marker
marketplaces
maryland
massage
measles
medal
memorizing
micro
misfortune
mixer
modifying
mold
monsoon
moonlit
moscow
motivational
neglected
nested
neutron
normalizing
occupied
octagon
offices
oklahoma
oprah
ornate
outlier
outwit
packet
paired
pantry
paperclip
paradigms
parallelogram
participant
passages
peculiar
pepperoni
personalizing
petition
petroleum
phonenumber
pickled
pickup
pier
pill
pitt
pivotal
pizzas
plentiful
poe
pooling
portuguese
posters
pots
powering
prep
preserved
prev
prevented
primates
prompted
protector
proximity
pulls
punishments
pushes
quirky
ramen
rats
readings
realizes
rearranging
receipt
recursively
reddit
refocus
rejection
removes
render
retired
rev
reverence
revising
rewritten
rightful
ritual
ronald
rumble
rushing
rusty
safeguard
sailed
sandcastles
sao
sapphire
sarcasm
savvy
scallions
scraping
screening
sem
semicolon
sensations
serial
signatures
sinks
sistine
slay
slicing
slot
sneezing
snowball
socializing
solely
somber
somehow
sophia
sophistication
sparks
sparse
springs
stamp
standardized
starbucks
starred
stating
statistic
statues
stirred
subsets
succulent
summertime
sunflower
supermarkets
survivors
swan
swayed
switches
sync
tasted
taxed
tf
thermometer
thinks
thirds
threads
til
timid
tokenization
tokenize
tract
tread
triangular
troposphere
tulips
twelve
twinkled
unacceptable
unwind
upheaval
uptime
usernames
ushered
variability
vegetarians
versed
vessel
vibe
victoria
vigilant
visa
walt
warn
weeds
whispering
whites
windowsill
windy
wipes
witnesses
workings
wrapped
wrapping
wraps
writes
##14
##16
##18
##37
##38
##57
##65
##80
##aa
##ages
##aine
##aling
##ase
##asing
##bert
##birds
##bone
##cess
##cher
##coat
##cous
##covered
##craft
##crew
##ctions
##ctive
##cts
##cular
##dling
##eal
##ean
##ease
##ended
##ential
##eon
##esis
##estimate
##eve
##fa
##fed
##ffle
##fier
##gence
##ges
##heet
##held
##hill
##ias
##iating
##icide
##iciency
##iel
##iers
##ifier
##imating
##inent
##ishes
##itable
##iterate
##ived
##izes
##kin
##kle
##lap
##las
##lea
##lect
##lines
##link
##logists
##loric
##lute
##mar
##minate
##mitted
##mother
##mouth
##ndor
##ndra
##ngo
##nsor
##nth
##oc
##oire
##ois
##oles
##ologies
##onant
##ong
##orns
##osphere
##oxide
##perm
##piece
##pine
##plified
##portation
##pping
##pulsion
##r2
##ression
##rier
##rium
##rl
##roid
##rown
##ssie
##stone
##sty
##surable
##tain
##text
##tine
##tism
##tney
##uary
##uda
##uffled
##uke
##unk
##ural
##uration
##urt
##user
##using
##ven
##view
##wn
##ws
##yer
##ype
##yre
##ys
122
12x
1900
1921
1940s
1944
1947
1948
1954
1973
1979
1981
1985
2002
2025
210
220
22nd
2500
4k
650
abbreviation
ac
accompaniment
accomplishing
adhering
adjusts
advisors
aerospace
afterward
allergens
allergic
analogies
anaphase
annie
anticipating
anyway
apocalypse
appeals
arid
arkansas
arose
arrested
arrogant
arthritis
astounding
attachment
authenticate
autocracy
badminton
bangkok
barren
baseline
besides
bid
binds
bingo
biochemical
biotechnology
blades
blake
bomb
bon
boo
bookmark
borrow
borrowing
brazilian
breast
broadcast
buckingham
bushes
buttermilk
buys
bytes
calmly
camry
captions
cashew
casualties
catfish
catholic
cdn
ce
celebrations
celled
chew
chirps
claiming
clarinet
classifies
cloaked
coating
coca
collide
colonialism
commentary
compliment
complimentary
computationally
concerts
concisely
concluding
confrontation
contaminants
copied
copyrighted
corrupting
cousin
creations
critiques
cruelty
crumbled
crying
cupcake
curtain
cushion
cushioning
cytoplasm
db
declines
deduce
defects
defendant
deficit
definite
delaware
dell
demeanor
demonstrations
desalination
devil
df
digitalization
diploma
disappearance
disbelief
discriminatory
disguise
disks
dislike
divisions
docker
downloaded
dozen
duplication
dusting
earners
earthy
echoed
edgar
elders
elf
elves
emerges
emirates
enacted
encyclopedia
enrolled
enumerate
escaping
essentials
eukaryotic
evaporates
exaggerated
exhaust
exhibits
explanations
export
expository
extinctions
eyjhchbfawqiojeymdd9
falcons
faqs
fascination
feudalism
finest
fingerprints
fitbit
folded
folders
folding
forefront
forgive
formulas
formulated
fragility
framing
freezer
freshest
freshwater
friedrich
frustrating
frying
funnel
gans
gary
geology
gifted
giver
goodness
gradients
grandparents
grasslands
greatness
grizzly
guesses
gut
halls
hamster
hasn
hatred
headers
healthily
heavenly
hectic
helloworld
herbal
heron
heterogeneous
heuristics
hindu
holmes
hone
hopelessness
hourly
humane
immersed
inconsistent
indicator
individualism
infringement
ingenuity
inputted
inspections
instructed
intermediate
internships
interpretations
intersecting
iq
irrational
italicized
iterating
ixid
jaguars
janeiro
journals
judging
juices
kelly
kelvin
kings
km2
knn
kobe
lambda
layouts
lcd
lease
lentil
lettering
librarian
lifecycle
likened
literally
llc
lone
louisiana
malaria
malta
marched
mayan
medicinal
mellow
melts
memorial
meow
merged
mess
microscope
militarism
milliliters
minimalist
minimized
minnesota
miscellaneous
mischief
misinformation
mla
mon
moss
munich
mutations
nicotine
nolan
nostalgic
notably
numpy
nutty
obedient
oceania
odyssey
offset
oils
optimally
outward
overfishing
owls
papaya
paperclips
parenthesis
parsing
partial
paypal
pd
perishable
permutations
pessimistic
physicians
pigeons
placement
polish
portray
pos
potions
ppc
professors
prolific
prophase
proving
provisions
punchline
punctuality
punctuated
pursuits
raindrops
raven
realities
rebel
reciprocal
recite
recreate
redwood
refugee
relatable
reliably
reputable
rescued
reshape
reshaping
resignation
resourcefulness
rhinoceros
rhythms
richer
riddles
risotto
rnn
rug
sacrificing
sandra
satire
satisfies
savanna
scaly
scented
scholarship
scholarships
scraps
scrum
seminar
seniors
separating
sequestration
shelters
shimmer
shocking
shout
shrink
shuttle
silhouettes
sirius
skyscraper
sleepy
sloth
smartwatch
snowfall
southeast
spikes
splits
spoilage
spoons
spur
squeezed
squirrels
stabilize
stadium
stargazing
stationary
stationery
sticky
stocking
strolled
submitted
subscribers
subsequence
supervision
supporters
surgeon
surround
surveyed
sweat
sweetly
tabby
tactic
tanzania
tapping
tbsp
telehealth
templates
tenacity
tens
tenses
tibetan
tighten
timber
timeframe
toiletries
totalitarian
townspeople
treasured
trench
trending
triumphant
troubles
turmoil
tutor
unavailable
underserved
undo
unnoticed
unsweetened
urged
vera
veterinary
victories
vienna
vodka
wa
wallpapers
warehouses
warren
watermelons
waved
weakening
wealthiest
webs
weighed
whip
wikimedia
wines
wiring
wits
worm
x3
yearning
yummy
##101
##22
##31
##40
##48
##58
##63
##66
##79
##ality
##alo
##alog
##are
##area
##ash
##aves
##ax
##bana
##band
##bar
##bat
##bate
##cated
##ception
##chairs
##cia
##ciation
##cid
##cience
##cle
##cled
##cott
##ctuate
##culate
##dor
##ees
##ef
##elope
##ense
##eo
##erns
##eur
##ex
##fia
##fic
##fix
##fly
##fuls
##function
##gged
##gnant
##gon
##graphic
##hana
##head
##ho
##hot
##how
##hs
##iaries
##ibly
##ically
##icing
##ig
##ille
##imation
##inated
##inem
##install
##ique
##irs
##isk
##ital
##itan
##iy
##jected
##jective
##ledged
##lers
##lica
##mad
##marks
##mb
##min
##minative
##mm
##mology
##mos
##nant
##nch
##oh
##oicing
##oking
##olars
##ops
##ora
##organ
##orium
##ortal
##oths
##oto
##ound
##ovable
##overs
##phate
##pid
##pit
##pling
##pool
##pot
##power
##pr
##pressants
##ract
##ranny
##raphic
##rea
##rent
##rial
##rid
##rights
##rin
##rites
##rize
##rling
##rolling
##ros
##scopic
##sk
##sks
##sr
##stein
##sters
##ther
##tie
##trate
##tres
##type
##uid
##uin
##ulated
##ulates
##ulum
##umbling
##umi
##uming
##unted
##urried
##uru
##ust
##utes
##utter
##vor
##wide
##wo
##world
##xed
##ye
##zation
##zer
105
128gb
135
16gb
1700s
1850
1900s
1903
1956
1988
212
30am
404
a14
abandon
abigail
abrupt
academics
accompanying
accord
aching
admission
aesthetics
affiliate
airy
allocating
ambiguous
amplify
amplitude
amsterdam
amulet
amusing
antiseptic
anymore
appetizer
argon
asana
attaching
attainable
attempted
audrey
authoritative
autoimmune
aviation
awful
ax
axes
b1
backwards
baggins
bangalore
bans
basin
bathing
battling
beasts
beds
benches
bending
beowulf
bernard
bilbo
binoculars
birdhouse
blade
bleaching
blending
blossom
boasting
boils
bonded
bonding
bonfire
bonuses
bottled
bounded
bounty
brando
breadth
brilliance
brushes
buildup
bumps
bun
buns
burpees
bye
byproducts
c2
cad
cap
carbohydrate
careless
carpets
carroll
casa
cemetery
centrifugal
charitable
cheat
cheetahs
childcare
chimpanzee
chirp
cindy
cinematography
circulatory
claimed
closures
clove
coalition
coarse
coats
cobalt
cod
codecademy
comics
commercials
complexion
compressing
condense
condenses
conducive
confirming
congratulate
connotations
consumerism
contaminate
continual
contrasts
controversy
cookware
corrective
cosmetics
courtesy
cpi
cranberry
crowds
curricular
cursor
dances
dataframe
dealership
debating
decay
decomposition
decoration
democrats
dental
dente
detects
deter
dick
dies
disc
disconnected
disgust
disrupting
disturbed
dominican
downpour
downside
downsides
drone
eagles
economists
editors
efficiencies
electronically
elliptical
elmer
emanating
embeddings
embraces
emergencies
enclosure
encompassing
enrich
er
eras
erin
evacuate
evans
evidenced
exceeded
exceeds
expands
exploit
exposing
eyre
factorization
faq
fateful
fearless
festive
fillets
firstname
flex
flickering
floured
folk
fond
fondly
forwards
fractional
fundamentally
fuzzy
galactic
gelato
genders
genuinely
giants
gig
gini
gorillas
grapple
greedy
greeks
groom
guy
h3
hairstyle
hamilton
harness
hassle
heatwaves
heisenberg
herd
hermit
hiked
holy
honduras
hopper
hose
hugged
hz
i7
ignoring
immigrant
impaired
indispensable
induction
informational
inhumane
initiated
innate
insomnia
instinct
instincts
integrates
intentional
interacted
interdependent
intergovernmental
intersect
intrusive
invigorating
invoice
iowa
ipads
ipv6
isbn
israel
iterations
jaipur
johnny
joins
josephine
journalist
jovial
kicking
knot
l1
ladies
lap
lapping
larvae
lays
learnt
lenovo
lidar
limbs
limes
linger
listens
liver
longed
loosen
macbook
macroeconomic
manufacture
mar
marching
marlon
martha
martian
masala
maximizes
mediums
melbourne
merely
mesh
mi
microorganisms
microwaves
milkshake
minimalistic
miscommunication
misspelled
misty
moby
modification
molten
mongolia
mothers
motorcycle
mrna
mulch
murky
murphy
namespace
napkins
naval
ne
needles
nesting
newer
nighttime
nokia
noon
normalize
noticeable
notification
obscure
observers
ocelot
olivia
onboard
openness
orbital
orchids
orlando
outages
outskirts
outsource
overcrowded
overeating
overseeing
oxymoron
pairing
paperless
parade
parallelism
parasite
parked
parliament
partly
patricia
pauses
pawns
peck
penicillin
peoples
phosphorus
phylum
pilates
pillow
pip
piracy
player2
plenti
plight
poison
polling
pollock
popped
praising
praying
probabilities
procrastinate
progressed
prokaryotic
proliferation
pronounced
propel
protesters
prototypes
proxima
publisher
puree
pursued
quantify
quarantine
quickest
rails
rally
ralph
reacts
reagan
recommending
reconcile
reconnect
reframe
refrigerators
regard
rehabilitation
reinforced
reinforces
relatives
relay
remembers
reserves
resolute
respectfully
rested
resting
restructure
reunite
rhine
rhode
richest
rodents
rosa
runtime
ruth
sack
sailors
saxophone
scaled
scandal
screamed
screenings
scuba
sculptor
se
seaside
seated
secretary
sedimentary
selects
semiconductor
senator
sequencing
shattered
sheeran
shrine
similes
simplifying
singles
sings
sizeof
skipping
skywalker
slave
sleeps
smelled
snap
snowstorm
soared
sometime
souvenirs
sovereignty
specially
specials
spectacle
stacks
stained
stains
stared
stemming
stereotypes
stiff
stimuli
strived
subatomic
succeeding
succulents
supercomputer
superpowers
surely
suspended
sweep
sympathy
synchronization
syrian
takeaway
takeout
tamper
teddy
telecommunications
telophase
territorial
theaters
therapies
thermosphere
tibet
tier
toddler
toolkit
torque
tracker
transcribe
translated
trumpet
tsunamis
tumor
tunes
tunnel
twin
ukraine
unbreakable
undergo
uneasy
unimaginable
unpaid
unstable
upholding
uprising
uranium
ushering
vacuuming
vader
venturing
verdant
vertically
vet
vidhya
violates
virtualization
wary
washers
weaken
wearables
whitespace
widget
wildfire
worcestershire
worthy
wrath
wrench
writeline
xdr
##23
##41
##52
##68
##87
##94
##action
##ading
##all
##ama
##ame
##amina
##ann
##antly
##any
##ardy
##avin
##away
##bal
##balanced
##beat
##bird
##bit
##bited
##boat
##borne
##bour
##bread
##cap
##caps
##cating
##cca
##cd
##cend
##cial
##coder
##cord
##dered
##dogs
##ducing
##duction
##eek
##eet
##eg
##eistic
##elle
##eller
##encing
##euver
##fold
##fted
##gain
##gee
##gist
##gled
##gos
##heart
##hl
##hore
##horn
##iable
##iana
##iber
##ich
##iew
##igence
##ik
##ila
##iles
##illo
##inator
##ind
##iously
##istan
##itability
##itis
##kind
##ku
##lades
##laid
##leading
##leton
##lice
##lide
##like
##lion
##lk
##luck
##maker
##manship
##matters
##mind
##ml
##nds
##nesian
##nobs
##ob
##ocating
##odynamic
##ometer
##ones
##organized
##othermic
##owing
##ows
##pan
##passing
##pective
##pend
##plicate
##position
##price
##print
##ptic
##ptive
##quin
##quish
##rad
##rades
##rank
##rat
##raw
##reaking
##rf
##rich
##ringe
##rinkle
##rks
##rome
##rove
##rtex
##rush
##ryl
##saurus
##shing
##ship
##sible
##sine
##sis
##sted
##story
##suit
##tails
##tate
##tch
##tide
##tops
##trification
##tta
##uating
##ucci
##udge
##udy
##uffle
##uish
##ulative
##ulin
##ulture
##unch
##upper
##urate
##utation
##vating
##verse
##vian
##vism
##vity
##vp
##washing
##wer
##working
##xes
##xia
##yla
##zone
102
112
113
13th
14th
1876
1905
1943
1966
1982
1983
2f
30pm
390
512gb
555
5pm
8000
94
9th
a13
a3
aabb
abacus
aboard
abode
abusive
accelerates
accessorize
accessory
accumulated
achieves
acknowledged
acres
additives
administered
adolescents
adorable
affinity
affirmations
agitated
airfare
airplanes
alerting
alleles
alleyway
alpha
ambient
ambiguity
amet
amid
andorra
animalia
animate
anime
annotations
anonymity
anthropology
apologies
appreciating
arches
arises
arising
artichoke
ashley
attic
auditing
augustus
austin
autocratic
b2c
backend
backward
bandwidth
basking
bathroom
beckoning
behalf
believer
berners
betterment
bibliography
billboard
biting
bittersweet
bizarre
bolster
boot
boron
botanical
botswana
bp
braking
brighten
broadcasting
bryant
bubbling
buddha
bulge
bundle
bursting
bx
cache
camps
cancel
carbonara
cared
carta
cassandra
causal
cavities
cayenne
chalk
championship
champs
characterize
charismatic
chars
chatter
checker
chelsea
christ
cited
citi
clearwater
clinics
clue
coexist
coldest
colossus
coloured
columbia
combatting
committing
commodity
competent
computerized
confederacy
confederation
confirms
coniferous
conquered
conscience
considerate
consolidation
constants
constituents
contacting
contactless
contradictory
contributors
controllers
cooks
correctness
coupled
crashes
creek
creeps
criterion
crossword
crushing
cupertino
curvature
cuz
cx
czech
dali
dancer
dart
darth
deadliest
deciduous
decipher
dedicate
defeats
delegating
deleted
deliberately
denim
denote
dentist
depiction
deposited
determinant
determinism
deterministic
devoured
dicaprio
dilemmas
diminishing
dine
directing
disastrous
disciplinary
dishwashers
displaced
disrupts
dist
divisors
dlrow
dolor
dome
domesticated
dormant
doubled
drainage
drenched
dropout
drum
dwight
e4
eccentric
edamame
elbow
elegance
emitted
emitting
endl
endpoint
entice
entrenched
episodes
eric
essentially
evermore
exceptionally
excuse
expelled
explanatory
exploiting
exponent
extensions
facilitated
faculty
fairies
fairytale
fallacies
ferdinand
ferns
fillings
findmax
firearms
flipped
floats
foe
foggy
foreshadowing
forgetting
formally
franz
freq
freud
func
fundraising
futile
galileo
garage
gathers
genome
geographically
germs
glands
goats
goldfinch
goldfish
governed
gown
granada
greed
greenland
greg
grilling
grossing
grueling
hamburgers
hanks
haste
hatch
hazard
headquartered
heartbreaking
heroism
himalayas
hitchhiker
hitler
holders
homer
hoop
huckleberry
hvac
hypertension
ideally
ignorance
ikea
imbalance
imdb
immortality
impulsive
incidence
indication
informing
instantaneously
institutional
insulate
insurmountable
intently
interactivity
interdisciplinary
invitations
ipsum
isolate
jose
journalists
judges
jury
kansas
keeper
kernel
kettle
kicked
knocked
koala
l2
lamb
lamps
landlord
landscaping
lateral
latvia
layering
lazarus
leagues
lebron
leftover
legged
levers
lexicon
liberation
lifted
limb
lithuania
logarithmic
lorem
magna
mainland
manchester
marginal
maritime
martial
matched
mate
mathematically
meandering
mechanic
meiji
melon
memorization
merger
merits
merkel
migrant
mileage
millennials
miniature
minorities
minus
miracle
misconception
misused
monroe
morrison
mosquito
mosquitoes
motorized
mourning
mow
mt
multicolored
mural
mx
mylist
naming
napoleonic
nationalist
nicely
nixon
nn
nodded
northeast
notepad
nourishment
nuclei
nursing
objectively
occupy
officials
oiled
omega
onclick
originates
osaka
overheating
overlooking
overthrow
overtime
overwhelm
paddle
pains
pantheon
panthera
parrots
partially
patching
pension
persist
phantom
photosynthetic
physician
pipeline
plagiarized
plague
plotting
pockets
postcard
potion
poured
preheating
presses
proceedings
prohibiting
propeller
proposing
prose
protectionism
proves
pseudo
punctual
quilt
radians
radium
rage
reactors
readily
realised
rebirth
rechargeable
recognizes
redistribution
reflections
refraction
refunds
regimes
regulates
rehearse
relu
reminiscent
replacements
repurposing
resembling
resistors
reversing
revolutions
rex
rick
roger
rollout
romania
rtx
rumbling
russell
rustles
sacrifices
sank
scam
scattering
schemes
segmenting
shampoo
sharper
sherlock
shopify
shuffle
shutter
silky
skeptical
skipped
slipping
smog
soaking
sole
solvers
sony
spacing
spanning
specialization
spelled
spilled
spooky
springtime
sprinting
squeeze
sri
staffing
staircase
stake
stalks
starlight
stellar
stirs
stonehenge
strand
streaks
striped
stuff
stunned
subfield
subjunctive
subsequently
suburbs
sudo
supermarket
surf
surveying
sweeteners
swirl
tai
ted
televisions
temptation
terminology
textbook
therapeutic
thinkers
thoughtfully
thunderstorms
thy
tipping
tiredness
toasting
trajectories
transistor
translucent
traversing
trendy
tuberculosis
tunisia
tuples
tvs
udemy
udp
uganda
unavoidable
uncharted
unesco
uneven
unexplored
unhelpful
unicorns
uniqueness
unleashed
unmatched
unusually
unveils
upcycling
upgrading
uptown
upwards
uv
vain
venice
verde
verifiable
vertebrates
villains
vines
violated
virtue
voiceover
wakes
wallpaper
wasteland
waywardness
whilst
whiteboards
woodlands
yahoo
yarn
yelled
yyyy
zeros
zodiac
°f
████
##0000
##07
##35
##36
##73
##84
##88
##abilization
##actic
##aj
##alm
##amia
##ara
##arable
##arily
##aring
##aron
##ath
##athy
##atically
##aved
##baba
##bbling
##beck
##bell
##berries
##bid
##body
##bra
##bre
##burger
##burn
##camp
##cat
##chair
##chell
##child
##ciative
##cker
##ckoned
##coin
##color
##cost
##cover
##culus
##cussion
##dar
##dding
##deen
##dgers
##dget
##din
##dity
##dos
##dox
##drop
##eak
##eats
##ects
##ede
##eed
##embling
##eran
##erent
##ero
##erted
##esty
##ever
##eving
##factory
##fast
##fect
##fied
##fiers
##flow
##fo
##friendly
##fun
##gage
##gator
##generation
##gly
##graphy
##grass
##gregation
##h2
##hack
##hd
##hima
##hire
##hole
##hora
##iated
##ibbon
##icize
##ico
##idant
##ident
##iency
##iff
##ifiable
##ikon
##ilda
##illed
##imulation
##inson
##ired
##ista
##itters
##ival
##ivism
##ja
##js
##ko
##ld
##lding
##lication
##lied
##lium
##lly
##logs
##loom
##main
##marine
##mented
##menting
##mir
##morphism
##mund
##nified
##nne
##nology
##nsing
##ntech
##ock
##odi
##oeing
##oes
##ogenic
##oke
##olo
##olt
##oluntary
##oly
##ool
##oons
##ord
##orship
##osis
##oting
##otive
##ouncing
##ours
##ova
##owed
##ox
##pel
##pen
##peration
##ph
##pired
##pires
##pite
##plier
##pox
##pped
##pport
##privileged
##profit
##quent
##ragon
##rase
##rators
##rds
##reaked
##ream
##rell
##rence
##ressed
##rike
##ritters
##rive
##rled
##rns
##rr
##rrelated
##rva
##saturated
##shed
##sion
##site
##sse
##sses
##star
##stream
##strings
##support
##sure
##tance
##td
##tep
##teria
##term
##thing
##tional
##tivate
##tp
##try
##tto
##turated
##tus
##tz
##uch
##udes
##ulled
##ulse
##ulsive
##umbo
##ume
##uments
##ummy
##umps
##upt
##upted
##urb
##urrying
##usion
##ussels
##vably
##value
##vana
##vate
##vent
##verge
##verted
##vier
##vince
##vis
##vision
##wable
##welling
##wish
##worthiness
##x13
##xyz
##yal
##ynaptic
##zi
##zo
##zzling
106
108
109
130
144
154
175°c
1787
1809
1863
1871
1885
190
1920s
1922
1974
2040
256gb
2a
2π
310
320
343
3500
384
4000
6cm
799
7y
850
8pm
abbreviations
ablaze
abs
accountants
acknowledging
actuators
ada
adherence
adipiscing
adversely
aeration
aerators
afar
affirmation
aime
airtight
algeria
alluring
altogether
ammonia
amoled
angelou
angola
antibodies
apathy
aperture
apologizing
appearances
applesauce
apprehension
apprehensive
approaching
apr
archaeological
archive
aromas
arrows
arteries
assessed
astro
astronomers
attacked
attain
atwood
au
aura
automates
avoidance
avoids
az
aztec
ballot
baltic
banker
barrel
beams
beethoven
behaviorism
belize
bind
binge
biographies
biryani
bites
blackberries
blacksmith
blast
blockbuster
blockchains
bloggers
bloodstream
blouse
bohemian
bolognese
boulder
bounce
boxer
bracket
braque
broadband
bruno
bubblesort
budding
cage
cambodia
campaigning
cane
capitalized
carbs
carlo
carvings
cashews
casino
casserole
categorise
cater
cellulose
cents
certainty
chargers
checkmate
cheesy
chemist
chomsky
chordata
chromatids
cipherchar
citing
cityscape
clarifying
classifiers
clerk
climber
clutch
coastlines
coelho
collaborated
collapses
collar
collared
comfortably
commas
como
competitiveness
compliant
compliments
compositions
compromised
condensed
conductivity
confined
confusing
consectetur
consolidate
consulted
contemplate
contentious
contrasted
convergence
convicted
convinced
cores
coronary
cosine
costing
countertops
cowboy
cravings
crowned
crumbling
crunch
crystalline
cubism
cuddly
culturally
cyclical
cyprus
daffodils
dame
dancers
dd
deafening
deception
defeating
defy
delectable
delights
denser
designate
det
detectors
devastation
devised
devops
diagonally
diff
dimension
dimly
disable
discriminate
disinfect
dismay
distributions
documentaries
dollop
doppler
doves
downfall
downwards
drawer
dreamlike
dressy
dubai
dwarves
dwelling
e7
easiest
eb
editorial
edits
educator
edward
effortlessly
eightfold
elapsed
elastic
eleven
ella
emancipation
embedding
embroidery
encoded
entangled
escalate
escalating
estoy
eternally
euclidean
europeans
evacuation
evan
exception
excluded
executives
exhibiting
existential
explainability
explosive
exponents
expose
extinguisher
farther
fascism
fashioned
favorites
feast
fermented
fertile
filmmakers
finches
finn
fins
flapping
flooded
fluttering
flux
foes
foreach
forecasted
forehead
fortunately
fossils
foul
fragments
fragrance
freshman
friar
fruity
furnishings
generators
gertrude
git
glitters
globalized
globalwarming
glove
gorges
gourmet
govern
governor
grandchildren
grim
grind
grouped
hailed
haired
han
handbook
hangman
harp
hastily
haze
hazel
heartbreak
heartwarming
heater
helicopter
helplessness
herbert
herbicides
hoard
hoarding
hoax
hola
holly
honing
hospitable
hovering
hubble
humility
humming
hydraulic
identifier
impending
impressions
improvisation
impulses
inaction
inclusivity
indulge
inefficiencies
inferential
inferred
ing
inhalation
inherently
inorganic
inspection
installations
instrumentation
insulated
insult
integrative
interconnectedness
internationally
interprets
interrupt
interviewee
intruder
investigated
invites
inward
irish
iso
isolating
iterator
jayden
jem
jerry
johnsmith
jolly
jubilation
kayak
keats
knees
lanka
lastname
lattice
lawns
layman
leakage
leaky
lending
lessen
lighten
lightest
lips
livable
lizards
lodging
lotta
lucia
luxuries
lydia
mache
macro
maldives
manta
manufactures
margarine
margins
marvin
masters
maths
matures
maya
md
meowing
merry
metamorphic
metaphorical
midway
minimizes
mistreated
mock
moderators
monica
monte
msft
mud
multitask
myriad
nail
narnia
navigational
needle
neglect
ner
nest
nests
nicaragua
niche
niger
nltk
notre
nucleotides
nw
ode
offenses
onward
opaque
openings
oppressed
oracle
orderly
orphan
outage
outbreaks
outsmart
overarching
overflow
overflowing
pact
padding
paintbrush
palpable
pandora
param
paramount
participated
pat
patio
peasant
pedestrians
penetration
perceptions
peripherals
perpetrator
persian
persony
philosophies
photon
photons
piles
pilots
pinnacle
pirates
plaintiff
player1
pleasures
poached
polonium
poodle
positioned
possessed
postponed
prayer
predecessor
predictors
prescription
primer
proclamation
projection
prominence
propagation
prune
ptsd
pytorch
q4
quarterly
quotient
radioactive
ranked
rebellious
rebuilding
recipients
rectangles
ref
refrigerate
refute
relic
reluctant
rembrandt
removable
renewables
reporter
resetting
residence
respects
restructuring
retailing
retrieves
reversedstring
reversestring
revolve
rhapsody
rhombus
riches
roars
robbers
robinson
robustness
romney
rude
rust
safeguarding
sailor
salesman
sanitizer
sapiens
sauteing
scanned
scanners
scare
scorching
seals
seamlessly
seaweed
secluded
secretly
securities
sediment
selfless
semantically
semantics
seminars
sensible
sensing
sensitivity
sentient
serena
settlements
shading
shady
shimmered
shined
shortcomings
siamese
siberian
sigmund
signup
sixty
sketching
skinless
sklearn
skype
sloths
slows
sluggish
smelling
smoky
sneeze
snowflake
sociable
socialist
soldering
somalia
sons
sophie
sorrows
soundly
sparking
speedy
spotify
sprawling
sprints
sputnik
squarespace
stanzas
steaming
stitches
stole
storylines
stovetop
stressors
stride
strolling
stuart
studios
stumble
stunts
subdued
subjected
subscribe
subscriber
substitutes
summarises
sunflowers
sunsets
superhuman
supplied
suspicion
svg
svms
swamps
sweaters
swords
symbiotic
symmetry
synchronous
takeaways
tanks
tate
te
tentacles
terrified
terrorism
theodore
thinly
tiktok
tiles
tina
tls
todo
toed
togetherness
tossed
totalitarianism
tractor
trans
transferable
transforms
transistors
trek
tribulations
trick
trigonometric
trojan
trucks
trudged
trusty
tsla
tt
twigs
umbrellas
unbearable
unconventional
underscores
unending
unfavorable
unforgiving
unfortunate
uniforms
unintentional
unleash
unleashing
unravel
uruguay
utilitarianism
utopia
v1
vaccination
valve
vermont
versatility
vest
veterinarian
vibrancy
vibrate
vitality
vito
vous
walker
walter
wan
warmed
warmest
waterfalls
waterways
wed
weightlifting
wherein
whistler
widgets
wildly
winners
wireframe
witches
writings
xp
yang
yemen
zeus
zoos
##!
##"
###
##$
##%
##&
##'
##(
##)
##*
##+
##,
##-
##.
##/
##:
##;
##<
##=
##>
##?
##@
##[
##\
##]
##^
##_
##`
##{
##|
##}
##~
##¡
##£
##¥
##§
##¬
##®
##±
##·
##»
##¿
##×
##æ
##÷
##ø
##ə
##ɪ
##ɹ
##ʿ
##ˈ
##α
##β
##γ
##δ
##ε
##η
##θ
##ι
##κ
##λ
##μ
##ν
##ο
##π
##σ
##υ
##च
##छ
##य
##ᄀ
##ᄇ
##ᄌ
##ᅡ
##ᅩ
##ᅵ
##ᆼ
##‐
##–
##—
##―
##‘
##’
##“
##”
##•
##⁄
##€
##←
##→
##⇒
##⇓
##∃
##−
##√
##∞
##∠
##∧
##∨
##∪
##≥
##⋅
##─
##│
##┌
##└
##═
##║
##╔
##╗
##╚
##╝
##╠
##╣
##╦
##╩
##╬
##█
##▸
##►
##●
##★
##☠
##♭
##✔
##✨
##❤
##⭐
##、
##。
##あ
##い
##お
##か
##き
##く
##こ
##し
##す
##た
##ち
##っ
##つ
##て
##な
##に
##の
##は
##ま
##も
##り
##を
##ん
##一
##下
##不
##个
##为
##人
##今
##他
##以
##们
##但
##何
##作
##你
##優
##元
##光
##准
##前
##去
##友
##可
##名
##吧
##在
##坚
##夕
##外
##多
##夜
##夢
##女
##好
##存
##它
##师
##師
##強
##形
##彼
##思
##性
##懈
##我
##持
##探
##教
##文
##斗
##无
##日
##是
##曾
##月
##朋
##正
##気
##水
##永
##海
##滩
##生
##由
##白
##的
##确
##秀
##私
##空
##经
##老
##自
##色
##花
##苦
##英
##行
##见
##让
##议
##远
##采
##量
##長
##難
##雨
##面
##食
##￼
##🌃
##🌏
##🌟
##🍩
##🍴
##🎉
##🏻
##🏼
##🐈
##🐥
##🐮
##👇
##👌
##👠
##💃
##💕
##💚
##💯
##🕺
##😀
##😆
##😈
##😉
##😎
##😔
##🚢
##🤔
##🤗
##🤤
##🤩
##🥘
##🧣
##🧤
##🧥
